/* Copyright 2020 The TensorFlow Authors. All Rights Reserved.
Licensed under the Apache License, Version 2.0 (the "License");
you may not use this file except in compliance with the License.
You may obtain a copy of the License at
    http://www.apache.org/licenses/LICENSE-2.0
Unless required by applicable law or agreed to in writing, software
distributed under the License is distributed on an "AS IS" BASIS,
WITHOUT WARRANTIES OR CONDITIONS OF ANY KIND, either express or implied.
See the License for the specific language governing permissions and
limitations under the License.
==============================================================================*/

unsigned char g_heart_rate_model_data[] = {
  0x1c, 0x00, 0x00, 0x00, 0x54, 0x46, 0x4c, 0x33, 0x14, 0x00, 0x20, 0x00,
  0x1c, 0x00, 0x18, 0x00, 0x14, 0x00, 0x10, 0x00, 0x0c, 0x00, 0x00, 0x00,
  0x08, 0x00, 0x04, 0x00, 0x14, 0x00, 0x00, 0x00, 0x1c, 0x00, 0x00, 0x00,
  0x90, 0x00, 0x00, 0x00, 0xe8, 0x00, 0x00, 0x00, 0x18, 0x4e, 0x00, 0x00,
  0x28, 0x4e, 0x00, 0x00, 0xa4, 0x55, 0x00, 0x00, 0x03, 0x00, 0x00, 0x00,
  0x01, 0x00, 0x00, 0x00, 0x10, 0x00, 0x00, 0x00, 0x00, 0x00, 0x0a, 0x00,
  0x10, 0x00, 0x0c, 0x00, 0x08, 0x00, 0x04, 0x00, 0x0a, 0x00, 0x00, 0x00,
  0x0c, 0x00, 0x00, 0x00, 0x1c, 0x00, 0x00, 0x00, 0x3c, 0x00, 0x00, 0x00,
  0x0f, 0x00, 0x00, 0x00, 0x73, 0x65, 0x72, 0x76, 0x69, 0x6e, 0x67, 0x5f,
  0x64, 0x65, 0x66, 0x61, 0x75, 0x6c, 0x74, 0x00, 0x01, 0x00, 0x00, 0x00,
  0x04, 0x00, 0x00, 0x00, 0x98, 0xff, 0xff, 0xff, 0x0a, 0x00, 0x00, 0x00,
  0x04, 0x00, 0x00, 0x00, 0x08, 0x00, 0x00, 0x00, 0x64, 0x65, 0x6e, 0x73,
  0x65, 0x5f, 0x32, 0x31, 0x00, 0x00, 0x00, 0x00, 0x01, 0x00, 0x00, 0x00,
  0x04, 0x00, 0x00, 0x00, 0xce, 0xb1, 0xff, 0xff, 0x04, 0x00, 0x00, 0x00,
  0x07, 0x00, 0x00, 0x00, 0x69, 0x6e, 0x70, 0x75, 0x74, 0x5f, 0x37, 0x00,
  0x02, 0x00, 0x00, 0x00, 0x34, 0x00, 0x00, 0x00, 0x04, 0x00, 0x00, 0x00,
  0xdc, 0xff, 0xff, 0xff, 0x0d, 0x00, 0x00, 0x00, 0x04, 0x00, 0x00, 0x00,
  0x13, 0x00, 0x00, 0x00, 0x43, 0x4f, 0x4e, 0x56, 0x45, 0x52, 0x53, 0x49,
  0x4f, 0x4e, 0x5f, 0x4d, 0x45, 0x54, 0x41, 0x44, 0x41, 0x54, 0x41, 0x00,
  0x08, 0x00, 0x0c, 0x00, 0x08, 0x00, 0x04, 0x00, 0x08, 0x00, 0x00, 0x00,
  0x0c, 0x00, 0x00, 0x00, 0x04, 0x00, 0x00, 0x00, 0x13, 0x00, 0x00, 0x00,
  0x6d, 0x69, 0x6e, 0x5f, 0x72, 0x75, 0x6e, 0x74, 0x69, 0x6d, 0x65, 0x5f,
  0x76, 0x65, 0x72, 0x73, 0x69, 0x6f, 0x6e, 0x00, 0x0e, 0x00, 0x00, 0x00,
  0x2c, 0x4d, 0x00, 0x00, 0x24, 0x4d, 0x00, 0x00, 0x04, 0x4d, 0x00, 0x00,
  0xf4, 0x4b, 0x00, 0x00, 0xe4, 0x4a, 0x00, 0x00, 0xd4, 0x2a, 0x00, 0x00,
  0xc4, 0x28, 0x00, 0x00, 0xb4, 0x00, 0x00, 0x00, 0xac, 0x00, 0x00, 0x00,
  0xa4, 0x00, 0x00, 0x00, 0x9c, 0x00, 0x00, 0x00, 0x94, 0x00, 0x00, 0x00,
  0x74, 0x00, 0x00, 0x00, 0x04, 0x00, 0x00, 0x00, 0x7a, 0xb2, 0xff, 0xff,
  0x04, 0x00, 0x00, 0x00, 0x60, 0x00, 0x00, 0x00, 0x0c, 0x00, 0x00, 0x00,
  0x08, 0x00, 0x0e, 0x00, 0x08, 0x00, 0x04, 0x00, 0x08, 0x00, 0x00, 0x00,
  0x14, 0x00, 0x00, 0x00, 0x30, 0x00, 0x00, 0x00, 0x00, 0x00, 0x0a, 0x00,
  0x0c, 0x00, 0x08, 0x00, 0x00, 0x00, 0x07, 0x00, 0x0a, 0x00, 0x00, 0x00,
  0x00, 0x00, 0x00, 0x01, 0x04, 0x00, 0x00, 0x00, 0x01, 0x00, 0x00, 0x00,
  0xeb, 0x03, 0x00, 0x00, 0x00, 0x00, 0x0a, 0x00, 0x10, 0x00, 0x0c, 0x00,
  0x08, 0x00, 0x04, 0x00, 0x0a, 0x00, 0x00, 0x00, 0x01, 0x00, 0x00, 0x00,
  0x02, 0x00, 0x00, 0x00, 0x04, 0x00, 0x00, 0x00, 0x06, 0x00, 0x00, 0x00,
  0x32, 0x2e, 0x31, 0x32, 0x2e, 0x30, 0x00, 0x00, 0xe6, 0xb2, 0xff, 0xff,
  0x04, 0x00, 0x00, 0x00, 0x10, 0x00, 0x00, 0x00, 0x31, 0x2e, 0x31, 0x34,
  0x2e, 0x30, 0x00, 0x00, 0x00, 0x00, 0x00, 0x00, 0x00, 0x00, 0x00, 0x00,
  0xd0, 0xb2, 0xff, 0xff, 0xd4, 0xb2, 0xff, 0xff, 0xd8, 0xb2, 0xff, 0xff,
  0xdc, 0xb2, 0xff, 0xff, 0x12, 0xb3, 0xff, 0xff, 0x04, 0x00, 0x00, 0x00,
  0x00, 0x28, 0x00, 0x00, 0xd1, 0x59, 0x3a, 0xd8, 0xdf, 0x2e, 0xe6, 0xcf,
  0xb1, 0xb7, 0x52, 0x5d, 0xd9, 0xca, 0x66, 0xb8, 0xc4, 0x30, 0x5b, 0xa1,
  0xf3, 0x9a, 0xa8, 0xbc, 0xd1, 0x26, 0x19, 0x0b, 0xda, 0x04, 0xee, 0xa7,
  0xcc, 0xf2, 0xc0, 0x1a, 0xe5, 0xf8, 0xb7, 0x36, 0xa0, 0x33, 0xe8, 0x0f,
  0xb8, 0x0c, 0xc9, 0x61, 0xab, 0xb6, 0xb4, 0x0e, 0x28, 0xfc, 0xd0, 0xf1,
  0xb1, 0x9e, 0x62, 0x0a, 0x2e, 0xc9, 0xaa, 0xf8, 0xd1, 0x1a, 0x4d, 0x0f,
  0x30, 0x0f, 0xb3, 0xf9, 0x4e, 0xfb, 0x58, 0x20, 0x0d, 0xd6, 0xe8, 0xdd,
  0x1f, 0xa9, 0x01, 0x20, 0x0a, 0x42, 0x46, 0xef, 0x11, 0xb3, 0xf0, 0xd7,
  0xb7, 0x18, 0x1c, 0xdb, 0xbe, 0xeb, 0xcb, 0xd0, 0x04, 0x0b, 0x43, 0x03,
  0xee, 0xc3, 0x4a, 0xac, 0xb5, 0xb9, 0x56, 0xcb, 0x1f, 0x9c, 0x1b, 0xf8,
  0xeb, 0x5c, 0x0c, 0x31, 0xac, 0x06, 0xb9, 0xd7, 0x57, 0x0a, 0x49, 0x27,
  0xcf, 0xfa, 0x9f, 0xa4, 0xa8, 0xe4, 0x15, 0x4f, 0x4f, 0x52, 0x32, 0xc9,
  0x41, 0xec, 0x40, 0x4c, 0x4d, 0xa4, 0xf7, 0xc1, 0x27, 0xa0, 0xa7, 0xab,
  0xba, 0xf5, 0x55, 0x28, 0x15, 0x65, 0x2a, 0xaf, 0x40, 0x4e, 0xac, 0xfc,
  0x94, 0xac, 0x4e, 0xc2, 0xac, 0xec, 0x15, 0xf2, 0x53, 0x0a, 0xc8, 0x3f,
  0xa6, 0xc3, 0x4d, 0x21, 0xa3, 0x43, 0x21, 0x3e, 0x4d, 0xd0, 0xad, 0x36,
  0xa1, 0x58, 0x03, 0xd1, 0x16, 0x0e, 0x2e, 0xb2, 0xe9, 0xff, 0xb2, 0x4b,
  0x04, 0x96, 0x3e, 0xcc, 0xed, 0x07, 0x0a, 0x3a, 0x1e, 0x93, 0x21, 0x56,
  0x3f, 0x14, 0xc5, 0x0b, 0x20, 0x24, 0x1f, 0x99, 0x30, 0x18, 0x17, 0xd8,
  0xb6, 0x23, 0x1e, 0xd0, 0xbb, 0xe7, 0xe7, 0xa2, 0xed, 0x26, 0xb3, 0x56,
  0x56, 0x25, 0x90, 0xdd, 0xe6, 0x4e, 0xe0, 0xf8, 0xd7, 0xbd, 0x33, 0x34,
  0x10, 0xd2, 0x52, 0x41, 0x4a, 0xde, 0xdf, 0xb3, 0x56, 0x2b, 0xc9, 0xb3,
  0xe3, 0x5c, 0xc5, 0x18, 0x0f, 0x53, 0x47, 0x83, 0xcd, 0x92, 0xae, 0x24,
  0x86, 0xf8, 0xe4, 0xfd, 0xda, 0x9d, 0xbd, 0x18, 0xe4, 0x12, 0xa5, 0xe6,
  0x8b, 0xf0, 0xcb, 0xf1, 0x3d, 0x41, 0xda, 0x31, 0x08, 0x28, 0xbd, 0x3b,
  0xd4, 0x43, 0x54, 0xb4, 0x39, 0x50, 0x2d, 0x29, 0x2a, 0x59, 0x0e, 0x9e,
  0x25, 0x37, 0x31, 0xfe, 0xf6, 0x35, 0xd1, 0x1e, 0x3b, 0xa8, 0xed, 0x4c,
  0xa8, 0x29, 0xb6, 0xfa, 0xb0, 0x37, 0x42, 0xdd, 0x4d, 0x5c, 0xc7, 0xf9,
  0x0c, 0x33, 0xcb, 0x10, 0xc4, 0xbb, 0x22, 0x0c, 0x5d, 0xff, 0x5b, 0xc1,
  0x14, 0x47, 0x59, 0x37, 0xfe, 0xd1, 0xee, 0x2d, 0x1d, 0x11, 0x2c, 0xac,
  0x04, 0xbf, 0xcf, 0xc5, 0xdf, 0xe2, 0x59, 0xb0, 0x42, 0x33, 0xb6, 0xf7,
  0x07, 0xf4, 0xfb, 0x19, 0xd7, 0xec, 0xf6, 0xdd, 0x3d, 0xb5, 0xc6, 0x52,
  0x46, 0xff, 0xe6, 0xf3, 0x18, 0xf8, 0xab, 0xda, 0xfe, 0x2a, 0x2c, 0xf3,
  0xe7, 0x92, 0xba, 0x25, 0xd6, 0xe0, 0xef, 0x4e, 0x10, 0x1f, 0x41, 0x0b,
  0xda, 0xd4, 0x15, 0x12, 0x38, 0x57, 0x20, 0x13, 0x38, 0xa6, 0xd3, 0x00,
  0xee, 0x32, 0x4e, 0xb9, 0x46, 0xe9, 0x21, 0xf1, 0x17, 0x45, 0xe1, 0xa2,
  0xc8, 0xd4, 0x8e, 0x92, 0x95, 0x1a, 0x2a, 0xee, 0xe1, 0xcf, 0x20, 0x3c,
  0xbb, 0x07, 0x9c, 0x2d, 0x2c, 0xb9, 0x31, 0x11, 0xc8, 0x3a, 0x2b, 0xc6,
  0x42, 0x46, 0xbb, 0x3d, 0x1c, 0x9d, 0xe2, 0x24, 0xe9, 0xb9, 0xfd, 0xd9,
  0xd8, 0x45, 0xea, 0xd2, 0x20, 0x56, 0xab, 0xea, 0xcd, 0xd0, 0xb8, 0x0b,
  0x53, 0xa0, 0x51, 0x4c, 0x4e, 0xce, 0xcd, 0xc2, 0x42, 0xe4, 0xcf, 0x3e,
  0xa6, 0x5e, 0xbd, 0x54, 0xcb, 0xcb, 0xa2, 0xff, 0x57, 0x43, 0x15, 0x5c,
  0xa9, 0x45, 0x23, 0x11, 0xc4, 0x25, 0x31, 0xd5, 0xaa, 0x51, 0xda, 0x1a,
  0x11, 0xa4, 0xd6, 0x1a, 0x40, 0xf2, 0xc3, 0xc3, 0x3a, 0xca, 0xed, 0xb1,
  0x4b, 0x13, 0x16, 0x0a, 0xd5, 0xb3, 0x23, 0xae, 0x1b, 0xc0, 0x9d, 0x3d,
  0x45, 0xce, 0xcb, 0xf4, 0x66, 0x14, 0xd4, 0xed, 0x38, 0x35, 0x3b, 0xdf,
  0xc4, 0xb1, 0xd9, 0x0d, 0x51, 0xb1, 0x3e, 0x07, 0x0e, 0xd5, 0x2a, 0x5c,
  0x32, 0xe2, 0xba, 0xe0, 0xd4, 0xa9, 0x10, 0x59, 0x09, 0x9e, 0xf4, 0x0f,
  0x9f, 0x08, 0x5b, 0x13, 0x2b, 0x1d, 0xf3, 0xec, 0x3e, 0xa8, 0xa5, 0xd0,
  0x2b, 0x4a, 0x37, 0xff, 0x46, 0xe5, 0x5e, 0xa2, 0xb2, 0xb1, 0xbc, 0x04,
  0x57, 0xd2, 0xe2, 0xda, 0xda, 0x0f, 0xc0, 0x9a, 0x41, 0x0e, 0xfd, 0x1a,
  0x20, 0xe3, 0xf4, 0x1e, 0x08, 0xe6, 0x9a, 0x2c, 0x1a, 0xef, 0x0e, 0xfb,
  0xe0, 0xb2, 0xe3, 0xca, 0x12, 0x26, 0x24, 0x3b, 0x9f, 0xcc, 0x0b, 0x28,
  0x03, 0x28, 0xb8, 0xa8, 0x07, 0x24, 0xaf, 0x64, 0x9e, 0xe0, 0xb1, 0xe0,
  0x14, 0x33, 0x9f, 0xc8, 0xef, 0x27, 0x18, 0xbe, 0xa2, 0x1f, 0x3d, 0xc1,
  0x60, 0xc8, 0xfe, 0xa0, 0xe0, 0xce, 0xcc, 0x5b, 0xec, 0xdc, 0xac, 0x08,
  0xd6, 0x46, 0xa5, 0xa6, 0xb6, 0x55, 0x17, 0x1e, 0xf6, 0xf1, 0xac, 0xb0,
  0xc1, 0xd2, 0xe1, 0xc3, 0xa2, 0xe5, 0x60, 0x26, 0xd2, 0x5a, 0x5e, 0xec,
  0x54, 0xbd, 0x9a, 0xaf, 0x48, 0xd2, 0xef, 0x63, 0xfc, 0xc4, 0xef, 0xe3,
  0x1d, 0xaa, 0x4c, 0x66, 0xed, 0xa5, 0xac, 0xca, 0xef, 0xc3, 0x34, 0xae,
  0xe3, 0xb4, 0x47, 0xbb, 0xc9, 0xbe, 0x5b, 0xf0, 0x01, 0xb9, 0x64, 0x1d,
  0x14, 0x3f, 0xec, 0xa4, 0x13, 0xf3, 0x44, 0xa1, 0x0c, 0xfe, 0x43, 0xf6,
  0x1e, 0xd2, 0xec, 0xeb, 0xeb, 0xcd, 0xdc, 0xb9, 0xc1, 0xa5, 0xce, 0x2d,
  0xde, 0x5f, 0xaf, 0x63, 0xf2, 0xc8, 0x39, 0x55, 0x11, 0x03, 0xdd, 0x11,
  0x3a, 0x46, 0xc8, 0xdc, 0x24, 0xb0, 0x21, 0x33, 0xbb, 0xe3, 0x1a, 0xbf,
  0x27, 0x56, 0x24, 0xd9, 0x28, 0xdb, 0xc7, 0xaf, 0x22, 0x4e, 0x3a, 0x30,
  0x05, 0xd8, 0xa3, 0x18, 0xc6, 0x40, 0xec, 0x22, 0x0b, 0xec, 0xa7, 0xee,
  0xfb, 0xac, 0xab, 0xa1, 0xcb, 0x25, 0x9b, 0x49, 0xbc, 0xb3, 0x09, 0xcb,
  0x18, 0x06, 0xe1, 0xb8, 0xd5, 0xf0, 0xdd, 0x28, 0x1a, 0x66, 0x5a, 0xaf,
  0xba, 0xcf, 0x24, 0xe0, 0xdd, 0x4e, 0x3c, 0xff, 0x22, 0x17, 0x9c, 0xc0,
  0xb3, 0x11, 0xaa, 0x02, 0x5e, 0x63, 0xfc, 0xa1, 0xd8, 0x00, 0x31, 0x19,
  0x5a, 0xd2, 0xec, 0x15, 0x12, 0xc3, 0xa8, 0x14, 0x3c, 0xeb, 0xeb, 0x56,
  0x11, 0xcc, 0xf9, 0xe8, 0xad, 0x1f, 0xab, 0xe0, 0x5b, 0x2d, 0xf0, 0xfa,
  0x12, 0x65, 0x66, 0x64, 0xe6, 0x0d, 0x5f, 0xb0, 0xeb, 0x32, 0xaa, 0xcc,
  0xe8, 0xbc, 0x53, 0xf7, 0x0b, 0xb7, 0xc7, 0xe7, 0x9a, 0x02, 0x52, 0x06,
  0x3a, 0xc2, 0x1a, 0x30, 0xf5, 0x9a, 0x4a, 0xa6, 0x00, 0xc5, 0xad, 0x9d,
  0xa1, 0xc5, 0x07, 0x20, 0xcb, 0xdd, 0x46, 0x1b, 0x58, 0xdf, 0xce, 0x2a,
  0x44, 0xad, 0x5f, 0x37, 0xad, 0x51, 0x33, 0xf5, 0x11, 0x2f, 0xdf, 0x33,
  0x07, 0xd1, 0xe1, 0x5a, 0x9f, 0xd6, 0xed, 0xa8, 0x30, 0xf5, 0x18, 0x48,
  0x40, 0x31, 0x51, 0x05, 0xd1, 0x3f, 0xe6, 0xda, 0xbe, 0xe5, 0x4b, 0xe9,
  0xe2, 0xb7, 0x09, 0xb2, 0x00, 0xad, 0xcb, 0xfd, 0x0d, 0xeb, 0xb3, 0x08,
  0x93, 0x02, 0x24, 0xfc, 0x9c, 0xbd, 0x54, 0xee, 0x52, 0x26, 0xf0, 0x02,
  0xbc, 0x2c, 0x17, 0x01, 0xca, 0xde, 0x1b, 0xab, 0xcf, 0x9a, 0x38, 0x11,
  0xe1, 0x18, 0xb1, 0xc2, 0x09, 0x50, 0x06, 0x27, 0x33, 0xe1, 0xe7, 0xee,
  0x97, 0xd2, 0xec, 0xb1, 0xe6, 0x1b, 0xcd, 0x3b, 0xad, 0xc8, 0xba, 0x52,
  0x53, 0xe2, 0x2e, 0x25, 0xe3, 0x21, 0xeb, 0x3b, 0x3c, 0x1c, 0x96, 0x48,
  0x12, 0x1e, 0x49, 0x49, 0xf8, 0x34, 0x3e, 0x07, 0x3b, 0x43, 0x0a, 0xb3,
  0x09, 0xed, 0x37, 0x00, 0x3c, 0xfb, 0xac, 0x30, 0x1a, 0xf5, 0x11, 0xeb,
  0xec, 0x9b, 0x37, 0xb8, 0x4c, 0xe5, 0x1d, 0xde, 0x24, 0xf0, 0x43, 0xd9,
  0x41, 0xa6, 0xb5, 0x61, 0xe8, 0xfa, 0xcf, 0x15, 0xfa, 0x16, 0x10, 0x18,
  0xc5, 0x1e, 0x1a, 0xda, 0xaa, 0x4e, 0xce, 0xd3, 0x13, 0x44, 0xe8, 0xda,
  0xaf, 0x3b, 0xb1, 0xb7, 0xee, 0x2a, 0x0b, 0x41, 0xdd, 0xc2, 0x3b, 0xd7,
  0x19, 0xe8, 0xb4, 0xc7, 0x18, 0xfd, 0x1c, 0x2e, 0x4f, 0xa0, 0x4a, 0xa0,
  0x2a, 0x44, 0xed, 0xd9, 0x60, 0xed, 0x57, 0xd0, 0x40, 0x88, 0x84, 0xda,
  0x40, 0x46, 0xe9, 0x8e, 0xd4, 0x40, 0x0c, 0x18, 0xf4, 0x43, 0xe6, 0x48,
  0x8e, 0x0a, 0x0a, 0xeb, 0x03, 0xc5, 0x2c, 0x93, 0x07, 0x43, 0x0c, 0x3f,
  0x41, 0xe7, 0x57, 0x0d, 0xbc, 0xa4, 0x17, 0xc5, 0x3c, 0x3a, 0x3f, 0x08,
  0x5a, 0xd7, 0x3c, 0x20, 0xeb, 0xce, 0x44, 0xb6, 0x5e, 0x46, 0x43, 0x27,
  0xc4, 0x9c, 0x3f, 0x30, 0x4e, 0xfa, 0xec, 0xc3, 0xb9, 0x94, 0x99, 0x3a,
  0xfb, 0x93, 0x33, 0xc2, 0x9f, 0x02, 0xd8, 0x41, 0x9f, 0x52, 0xa6, 0x9f,
  0xf4, 0xb6, 0xad, 0x07, 0x5a, 0xbe, 0x02, 0xf2, 0xd2, 0xe6, 0x42, 0xfe,
  0x0f, 0xa2, 0xe4, 0xe8, 0xb0, 0xea, 0x56, 0x44, 0xa1, 0x57, 0x00, 0x27,
  0x2a, 0xef, 0x48, 0x96, 0x0d, 0x1a, 0x05, 0x97, 0x98, 0x19, 0x62, 0xe9,
  0xe8, 0x14, 0x01, 0xef, 0xa9, 0x18, 0x51, 0xf3, 0x58, 0x05, 0x21, 0xc1,
  0xfd, 0xf1, 0x3e, 0x52, 0xd6, 0x2f, 0xaa, 0xf0, 0x54, 0xed, 0xe7, 0xc6,
  0x62, 0xeb, 0x4d, 0x99, 0xb9, 0xb9, 0x5c, 0x44, 0xf9, 0xae, 0xe4, 0xf5,
  0x54, 0x97, 0x02, 0xab, 0xed, 0x28, 0xe8, 0x57, 0xad, 0xbf, 0xb5, 0x1f,
  0xe0, 0x46, 0xf3, 0x25, 0x15, 0xdd, 0x3f, 0x49, 0xa1, 0xd7, 0x12, 0x2e,
  0x55, 0xfc, 0x3f, 0x45, 0x4e, 0x26, 0x60, 0x9d, 0x33, 0x62, 0x59, 0xfc,
  0x58, 0xa5, 0x2d, 0xbf, 0x1a, 0xd7, 0x47, 0x50, 0xb4, 0x17, 0x16, 0xb3,
  0x9b, 0x15, 0x00, 0xdb, 0x36, 0xaa, 0xda, 0xe6, 0xac, 0x35, 0xc6, 0xb4,
  0xfb, 0xe0, 0xf8, 0x0a, 0x9e, 0xbc, 0x21, 0x22, 0x9d, 0xce, 0x61, 0xe4,
  0x44, 0x18, 0xf7, 0xa7, 0xac, 0x1f, 0xa4, 0xab, 0x50, 0xd6, 0x28, 0x4e,
  0x9e, 0xa3, 0xcc, 0x1b, 0x25, 0x00, 0xc9, 0xe0, 0xbf, 0xbf, 0x0d, 0x4b,
  0x3e, 0xce, 0xb6, 0xa5, 0x2a, 0xf7, 0xa4, 0x60, 0x55, 0x63, 0xbf, 0x9d,
  0x9c, 0xbd, 0x9a, 0xb4, 0x4f, 0x2b, 0x35, 0xda, 0x9f, 0x63, 0xb3, 0xd8,
  0x9d, 0xdf, 0xe6, 0x1b, 0xbe, 0xf6, 0x36, 0x4c, 0xbb, 0x4f, 0xc2, 0xda,
  0xed, 0xd0, 0xee, 0xbd, 0xd6, 0x2d, 0xd5, 0x56, 0xfb, 0x4b, 0x65, 0x35,
  0xf4, 0xaf, 0x0f, 0x38, 0xab, 0x1a, 0x03, 0xeb, 0x55, 0xcb, 0xab, 0xce,
  0x27, 0x1e, 0xc9, 0x9a, 0x53, 0xce, 0x9f, 0x2e, 0xbe, 0x3c, 0xc0, 0x57,
  0x9a, 0xa8, 0xd6, 0x2c, 0x25, 0xa2, 0x4d, 0x9e, 0x58, 0x9c, 0x34, 0x21,
  0xe0, 0xb1, 0x24, 0x54, 0x4f, 0x3f, 0x4f, 0xb4, 0x51, 0x91, 0xfc, 0x49,
  0xd0, 0x2f, 0x27, 0xe9, 0x54, 0xbf, 0x37, 0x91, 0x90, 0x11, 0xea, 0xcb,
  0x9f, 0x9f, 0x52, 0xd3, 0x96, 0xf0, 0xcf, 0x19, 0x37, 0x08, 0x23, 0x9b,
  0xca, 0xe8, 0xe1, 0x1f, 0xe8, 0xef, 0xe0, 0x59, 0x3a, 0xce, 0x18, 0x4d,
  0xf4, 0xe8, 0x42, 0xf9, 0x03, 0x5a, 0xe1, 0x3f, 0x1b, 0xad, 0x02, 0x01,
  0x18, 0x4a, 0xe2, 0x50, 0xae, 0xde, 0xcb, 0x27, 0xa0, 0xd1, 0x30, 0x32,
  0x1f, 0xc3, 0xb8, 0x23, 0x34, 0x9d, 0x46, 0x48, 0x4c, 0xd0, 0x04, 0x32,
  0x26, 0x23, 0xc1, 0x29, 0xf3, 0x34, 0xd5, 0x1e, 0x54, 0xc5, 0x98, 0x48,
  0xff, 0xf5, 0x14, 0x92, 0x30, 0xe3, 0xcd, 0x1a, 0xbc, 0x04, 0x47, 0xac,
  0x26, 0x21, 0x3e, 0xfd, 0x95, 0x3e, 0x40, 0xe2, 0x34, 0x51, 0x9d, 0x5d,
  0x0e, 0xcf, 0xba, 0xab, 0xc8, 0xae, 0x03, 0x96, 0x2e, 0x49, 0xb0, 0xca,
  0x97, 0x08, 0x0c, 0xc2, 0x31, 0x96, 0xd7, 0x47, 0x98, 0xfc, 0xd6, 0x33,
  0x28, 0x4e, 0x22, 0x24, 0x57, 0xf8, 0x18, 0x0e, 0xd9, 0x16, 0x3d, 0x09,
  0xb7, 0x38, 0x18, 0xac, 0xc1, 0x2a, 0xf6, 0xd7, 0x1a, 0x5b, 0xef, 0xa9,
  0x31, 0x0c, 0x08, 0x5c, 0x35, 0x21, 0x25, 0xd0, 0x38, 0xa1, 0xab, 0xbc,
  0x5a, 0xdf, 0x2e, 0xe3, 0xaf, 0x55, 0x9a, 0x04, 0xbb, 0x5f, 0x26, 0x3c,
  0xe0, 0xd8, 0x4b, 0xdc, 0x27, 0x4b, 0x2d, 0xc2, 0xa3, 0x46, 0x4c, 0xf1,
  0x02, 0xf2, 0x37, 0xa4, 0x44, 0xca, 0x03, 0x58, 0xdb, 0xac, 0xe2, 0xdc,
  0x36, 0x09, 0xeb, 0xcd, 0xf9, 0x9c, 0x5c, 0x9a, 0x11, 0xe3, 0xce, 0xc6,
  0x5c, 0x9a, 0x24, 0x46, 0xbe, 0x55, 0x53, 0xda, 0xae, 0x90, 0x4b, 0xd3,
  0x29, 0x04, 0x8f, 0x0d, 0x1b, 0x0e, 0x05, 0x09, 0xd4, 0xbe, 0x52, 0x34,
  0x46, 0x95, 0xf4, 0xac, 0x53, 0xb2, 0xe5, 0x28, 0xaa, 0xeb, 0x20, 0x2b,
  0x38, 0xdc, 0x9d, 0x36, 0x43, 0x28, 0x4e, 0xb7, 0x9a, 0xe6, 0xc6, 0xed,
  0xea, 0x12, 0x40, 0xe3, 0x26, 0xf6, 0xf0, 0x07, 0x23, 0xb3, 0xba, 0xf7,
  0xa4, 0x4f, 0x1e, 0x96, 0xa2, 0xd1, 0x33, 0x3b, 0x53, 0x37, 0xc9, 0x29,
  0xfc, 0x20, 0x32, 0x26, 0x38, 0xb5, 0xda, 0xe9, 0xfd, 0xfe, 0x2d, 0xd8,
  0xd8, 0xf9, 0x50, 0xc6, 0x51, 0x51, 0xe6, 0x5e, 0x4e, 0x9e, 0x49, 0xd4,
  0x33, 0xc5, 0x5e, 0xe5, 0x5d, 0xf7, 0x35, 0x2c, 0x31, 0xc0, 0x64, 0x9c,
  0xb1, 0xe2, 0xbd, 0xfd, 0x19, 0x36, 0x9c, 0x18, 0xa7, 0x07, 0x42, 0x48,
  0xc3, 0xc7, 0x1e, 0x61, 0xa1, 0xed, 0xca, 0x5e, 0x63, 0xb5, 0xdb, 0xa6,
  0xe0, 0xc8, 0xb5, 0xcd, 0xf8, 0xd2, 0x3d, 0x1b, 0xf5, 0x9f, 0xc0, 0xc3,
  0x33, 0xf3, 0xb5, 0x0b, 0xd7, 0xde, 0x5e, 0xcf, 0xed, 0x18, 0x2a, 0xd2,
  0x2b, 0x33, 0x9c, 0x64, 0xa5, 0xab, 0x2a, 0x4a, 0xfe, 0x9a, 0x23, 0xd4,
  0x9b, 0xe7, 0x4f, 0xd3, 0x0c, 0x62, 0xeb, 0x08, 0xdc, 0xea, 0xbb, 0xc8,
  0xf6, 0x1c, 0x63, 0x08, 0xa2, 0xd2, 0xea, 0x0e, 0xde, 0xa8, 0xbf, 0xb7,
  0x52, 0xb3, 0x07, 0x00, 0xba, 0x20, 0x43, 0xb5, 0xb1, 0xe6, 0x3e, 0xe0,
  0xfe, 0xee, 0x37, 0x1c, 0xef, 0x62, 0x05, 0xe8, 0x12, 0xf3, 0x01, 0x3d,
  0xd5, 0x9f, 0xd6, 0xd0, 0x49, 0xbe, 0x4d, 0xa2, 0xd7, 0x59, 0xfe, 0xd8,
  0xb4, 0xb9, 0xaf, 0xed, 0x41, 0x2b, 0xf6, 0x50, 0xa8, 0xf4, 0x9a, 0x43,
  0x32, 0xa3, 0x05, 0xb1, 0xcb, 0x08, 0x3f, 0xff, 0x13, 0x58, 0x32, 0xb9,
  0xb1, 0x25, 0x3f, 0x52, 0xdf, 0xe7, 0x01, 0xe7, 0xb3, 0x09, 0x1f, 0xa3,
  0x27, 0xd7, 0x51, 0xaf, 0x46, 0xda, 0xb9, 0x56, 0x37, 0xf6, 0x0b, 0xab,
  0x03, 0x9d, 0x46, 0xf4, 0x9a, 0xa8, 0x28, 0x26, 0xbe, 0x17, 0xdd, 0xe6,
  0x2b, 0x58, 0x9e, 0x3d, 0xd8, 0xa8, 0x0f, 0xd8, 0x3c, 0x58, 0x5a, 0x21,
  0x31, 0x49, 0xe0, 0xc0, 0xf7, 0x13, 0x99, 0x32, 0x1f, 0x3f, 0x0f, 0xb9,
  0x56, 0xa9, 0x9b, 0x33, 0xce, 0x48, 0xa8, 0x43, 0xac, 0x08, 0xd7, 0xa9,
  0x93, 0xac, 0xf5, 0xc5, 0x54, 0x36, 0xcc, 0x2f, 0x9a, 0x91, 0x2a, 0x53,
  0x01, 0xbf, 0xcd, 0xfb, 0x91, 0x1c, 0xab, 0x54, 0x47, 0x9f, 0xf5, 0xf9,
  0xe7, 0xb7, 0x25, 0x0c, 0x3c, 0x00, 0xf8, 0x40, 0x48, 0x9e, 0x16, 0xfa,
  0xb9, 0x3e, 0x02, 0x2d, 0x9c, 0x50, 0x27, 0x25, 0x06, 0xc7, 0xed, 0xa8,
  0x05, 0x53, 0x10, 0x22, 0xca, 0x22, 0x4f, 0x01, 0x21, 0x45, 0xcb, 0xad,
  0xff, 0x16, 0xd2, 0xc9, 0xf7, 0x59, 0x27, 0x24, 0xbe, 0x21, 0x45, 0x34,
  0x3c, 0xa3, 0xd3, 0x53, 0x99, 0xf6, 0xff, 0x36, 0x50, 0x9a, 0x57, 0xe5,
  0x66, 0x2d, 0x5c, 0xbe, 0x24, 0xb0, 0xd1, 0x27, 0x58, 0x37, 0x52, 0xe3,
  0xb2, 0xa1, 0xdf, 0x56, 0xe4, 0xea, 0xde, 0x07, 0x0f, 0x00, 0xfb, 0xd6,
  0x23, 0xd6, 0x06, 0x42, 0x61, 0xa7, 0x02, 0x57, 0xc7, 0xe7, 0xa5, 0x1d,
  0xf5, 0x9b, 0xb1, 0xa3, 0x20, 0xa3, 0xcb, 0x03, 0x20, 0x2f, 0xd7, 0x0f,
  0x2f, 0xf5, 0xaf, 0xc4, 0x37, 0xcb, 0x13, 0xd2, 0x46, 0xd0, 0x0a, 0xbd,
  0x0f, 0x44, 0xd3, 0xca, 0xd3, 0xf6, 0xb9, 0x64, 0xb3, 0xdd, 0x12, 0x50,
  0x35, 0xe3, 0x60, 0x39, 0xea, 0xe9, 0x13, 0x36, 0xf1, 0xf2, 0x3c, 0xde,
  0xdc, 0xae, 0x23, 0xbc, 0x5f, 0xca, 0xd6, 0x65, 0xd8, 0xc0, 0xef, 0x19,
  0xbc, 0xb6, 0x66, 0x1d, 0x34, 0xf9, 0x51, 0x0d, 0xd1, 0xc2, 0xd1, 0x1f,
  0x43, 0x38, 0xdf, 0xff, 0x0f, 0xf1, 0xfa, 0xb6, 0xb7, 0x0a, 0x5a, 0x32,
  0xce, 0xee, 0xa7, 0xc7, 0x54, 0x2a, 0x2b, 0x5b, 0xc3, 0xbc, 0xa1, 0x2e,
  0x5a, 0xab, 0x4d, 0xe5, 0x50, 0x18, 0xa6, 0xb6, 0xf9, 0x06, 0x15, 0x00,
  0xab, 0xa5, 0xe6, 0xd7, 0x03, 0x41, 0x10, 0xa8, 0xee, 0x1d, 0x3f, 0xcd,
  0xaf, 0xf5, 0xec, 0x94, 0xaa, 0xa1, 0xc3, 0xaf, 0x17, 0xa5, 0x9f, 0x2f,
  0xbe, 0x11, 0x9a, 0x29, 0x57, 0x55, 0xe7, 0x50, 0x59, 0xea, 0xe5, 0xc0,
  0xd2, 0x96, 0xc1, 0x1e, 0x92, 0x55, 0x99, 0x2b, 0x1e, 0xd1, 0x4d, 0x1a,
  0xf1, 0x59, 0x0f, 0x00, 0x47, 0xe6, 0x35, 0x5e, 0x5e, 0x10, 0x98, 0x06,
  0x03, 0x94, 0x9a, 0xf9, 0xeb, 0x46, 0x09, 0xf1, 0x52, 0x2a, 0x27, 0xe6,
  0x4f, 0xec, 0x3b, 0x0d, 0x53, 0x9a, 0xcc, 0xb8, 0x0c, 0x0b, 0xe6, 0x5f,
  0xc2, 0x44, 0xcd, 0x3b, 0x9e, 0x39, 0x4e, 0x5c, 0x5e, 0x08, 0x16, 0x9c,
  0x56, 0x4e, 0x38, 0x63, 0x64, 0xdb, 0xcf, 0x2e, 0x3d, 0x63, 0xb3, 0x16,
  0xc5, 0xba, 0x9f, 0x00, 0xe6, 0xa7, 0x23, 0xe7, 0xa2, 0x00, 0xec, 0x54,
  0x5b, 0x9a, 0x2b, 0x57, 0x10, 0xbb, 0xdb, 0x1d, 0xc5, 0xbf, 0x19, 0xb4,
  0x60, 0xdf, 0x52, 0x9c, 0x34, 0x1a, 0xf3, 0xc7, 0x9c, 0x0a, 0x3f, 0x4d,
  0x51, 0xfc, 0xc0, 0x02, 0xac, 0x25, 0x5d, 0xce, 0x3d, 0x9d, 0xbb, 0x9b,
  0x47, 0x11, 0xcf, 0xc4, 0x62, 0xd3, 0xa7, 0x4c, 0xe7, 0xdc, 0xfc, 0xb1,
  0xdf, 0xe6, 0x29, 0xa9, 0xee, 0xb4, 0xd3, 0x51, 0x2d, 0x97, 0x58, 0x4f,
  0x15, 0xcb, 0x22, 0x4c, 0x57, 0x05, 0x27, 0xd2, 0x1d, 0x21, 0x39, 0x35,
  0x2a, 0x0b, 0x44, 0x9e, 0x3b, 0xd3, 0x44, 0xa8, 0xa9, 0x3b, 0xf6, 0x28,
  0x3a, 0x99, 0x01, 0xe2, 0xb1, 0x30, 0xf0, 0xa9, 0x24, 0x5a, 0xae, 0xa6,
  0x10, 0xe3, 0xdd, 0xe4, 0xe6, 0x3f, 0xb4, 0xf8, 0x11, 0x0e, 0x3b, 0xab,
  0xfe, 0x48, 0x09, 0x98, 0x42, 0xd1, 0x5b, 0x22, 0x4a, 0x90, 0xec, 0xc2,
  0xa4, 0x4b, 0xe8, 0x55, 0xe3, 0xf2, 0xf2, 0x4c, 0xb9, 0xc0, 0xa5, 0x8f,
  0x32, 0x16, 0xe0, 0xef, 0xea, 0xcb, 0x5b, 0xc7, 0x27, 0xdc, 0xaf, 0xd7,
  0x63, 0x9d, 0xd5, 0x26, 0x39, 0x9c, 0x20, 0xf4, 0x5c, 0xdf, 0xd3, 0x49,
  0xa9, 0x53, 0xec, 0xe8, 0x18, 0x1a, 0x55, 0xe4, 0xaa, 0x45, 0x64, 0xa9,
  0x25, 0xc1, 0xe0, 0xbd, 0xbb, 0xa0, 0xfa, 0x26, 0xba, 0xa5, 0x65, 0xf1,
  0xb1, 0x5f, 0x32, 0x09, 0x0e, 0x57, 0x66, 0xa2, 0x57, 0x01, 0x2d, 0x4a,
  0xdc, 0xa1, 0xc1, 0x49, 0xc4, 0xe8, 0xc8, 0x03, 0x20, 0xe0, 0xcc, 0xb2,
  0xc6, 0x18, 0xac, 0xe0, 0xbd, 0xd1, 0x35, 0xf1, 0x0b, 0x40, 0x26, 0x3c,
  0xb3, 0xaa, 0xd5, 0x0a, 0x2a, 0x41, 0xd1, 0x42, 0xd1, 0xa6, 0x2b, 0x25,
  0xe8, 0x9c, 0x04, 0x54, 0x9a, 0x2b, 0xd8, 0x9e, 0xc4, 0x04, 0x3d, 0x63,
  0xff, 0xe7, 0x9c, 0xdc, 0x35, 0xb4, 0x2f, 0x58, 0x9c, 0x56, 0xe0, 0xc8,
  0x53, 0xb2, 0xd6, 0xfb, 0xe9, 0x62, 0xe1, 0xc0, 0x09, 0xc5, 0xf0, 0xdb,
  0x3e, 0x16, 0x9e, 0xdb, 0x08, 0xf7, 0xab, 0x23, 0x26, 0xbe, 0x5e, 0xf0,
  0xc9, 0xfc, 0x61, 0xce, 0xac, 0x16, 0xc0, 0x1d, 0xcd, 0x46, 0x44, 0x19,
  0xbe, 0xd0, 0x5d, 0x33, 0xf6, 0x30, 0xb2, 0x4f, 0x34, 0xbb, 0x13, 0x59,
  0xaa, 0x44, 0x39, 0xd7, 0xf8, 0x4f, 0x04, 0x0b, 0xf9, 0xa4, 0x01, 0xb3,
  0xa8, 0x9a, 0xdc, 0xfb, 0x22, 0x5c, 0x40, 0x5b, 0x29, 0xd9, 0xea, 0xef,
  0x32, 0xa5, 0x00, 0x56, 0x0a, 0x9a, 0xc2, 0xad, 0xae, 0x0f, 0x37, 0xb3,
  0x36, 0xfc, 0xec, 0x4e, 0x0a, 0x47, 0x36, 0xad, 0x5b, 0x12, 0x3d, 0x50,
  0x06, 0x8f, 0x0c, 0x44, 0xba, 0x9d, 0xfc, 0xee, 0x26, 0x9b, 0x36, 0x50,
  0x42, 0xeb, 0x35, 0xca, 0xb4, 0xac, 0x9e, 0x9d, 0x18, 0xef, 0x57, 0x47,
  0xfa, 0x10, 0xea, 0xdd, 0x4b, 0x0b, 0x9a, 0xb3, 0x0f, 0xf5, 0xb5, 0xec,
  0xb1, 0xd3, 0xbd, 0xcb, 0xd7, 0xb5, 0x09, 0xdf, 0x65, 0xb5, 0xe2, 0x20,
  0x26, 0xea, 0xd6, 0xa9, 0xce, 0xcd, 0x5b, 0xc3, 0xe2, 0x51, 0x18, 0xbf,
  0xe1, 0xe4, 0x3d, 0x13, 0x5c, 0x19, 0x4f, 0x34, 0xeb, 0x1e, 0x61, 0x2c,
  0x4c, 0xe9, 0xa8, 0x4a, 0xeb, 0xac, 0xf0, 0xc4, 0x49, 0x33, 0x19, 0x0b,
  0xcc, 0xbe, 0x2c, 0x4b, 0xe5, 0x10, 0xb1, 0xf5, 0x0f, 0x10, 0x62, 0x25,
  0xe1, 0x3e, 0x28, 0xbe, 0xef, 0xc2, 0xda, 0xec, 0xe8, 0xeb, 0x27, 0x31,
  0x2d, 0x08, 0xb7, 0xe4, 0x4e, 0xae, 0xa8, 0x0b, 0xbc, 0x43, 0x37, 0xf0,
  0xd3, 0x12, 0x9f, 0x60, 0xf7, 0x32, 0xf1, 0xf8, 0xed, 0x1a, 0x05, 0x33,
  0x32, 0xaf, 0xf6, 0xc6, 0xd9, 0xfb, 0x2b, 0x5c, 0x1d, 0x5b, 0xf7, 0xb4,
  0x15, 0x11, 0xc7, 0x9f, 0xcb, 0x3c, 0xfc, 0xa7, 0x52, 0xef, 0x57, 0xb1,
  0x05, 0x9e, 0xa2, 0x1c, 0x40, 0xb0, 0x4e, 0xa7, 0xbf, 0xb4, 0xb9, 0x4e,
  0x5f, 0x04, 0x5a, 0xfe, 0x02, 0xa4, 0xe7, 0x36, 0x3d, 0x20, 0xaa, 0x04,
  0xa1, 0x1e, 0x07, 0x5a, 0x31, 0x27, 0x38, 0x0a, 0xa5, 0x07, 0x0c, 0xef,
  0xb2, 0x94, 0x1b, 0x42, 0x45, 0x57, 0x34, 0x13, 0xf1, 0x39, 0x5a, 0xe4,
  0x36, 0xd7, 0xe7, 0xb1, 0xd8, 0x45, 0x94, 0x4e, 0xf1, 0xa9, 0x41, 0xb1,
  0xc6, 0x17, 0x51, 0x34, 0x92, 0x4d, 0x46, 0xa1, 0xb3, 0x9a, 0xe2, 0x39,
  0x5b, 0x07, 0xd5, 0x1c, 0xc0, 0xc2, 0x9a, 0x1f, 0x37, 0xbc, 0x54, 0xa1,
  0x14, 0x02, 0xde, 0xe5, 0xdf, 0x24, 0xe1, 0x40, 0xb2, 0x55, 0xb8, 0xe3,
  0x1d, 0xfc, 0xd9, 0xf9, 0x35, 0x43, 0x3c, 0xe9, 0xc8, 0xba, 0xfa, 0x44,
  0x9b, 0x24, 0x42, 0xd7, 0x1a, 0xdf, 0x14, 0xa7, 0x31, 0x5b, 0x34, 0x15,
  0xa7, 0x05, 0x3a, 0xde, 0x5d, 0xd3, 0xa3, 0xc7, 0x53, 0xbb, 0x50, 0x35,
  0x56, 0x9b, 0xde, 0xf2, 0x28, 0xee, 0xa3, 0x46, 0xf1, 0xbf, 0xb5, 0xa2,
  0x11, 0x64, 0xbe, 0xb2, 0xd0, 0x0b, 0x4a, 0xb9, 0x3a, 0xad, 0x40, 0x17,
  0xee, 0x9e, 0xcd, 0x9d, 0x16, 0xc4, 0x03, 0xdf, 0xfb, 0x1a, 0xd3, 0xf7,
  0xe6, 0x08, 0xdc, 0x07, 0x12, 0xde, 0xbd, 0x1b, 0x4f, 0xed, 0x4d, 0xf2,
  0x17, 0xfc, 0x06, 0x16, 0xb2, 0x50, 0xe6, 0xca, 0x63, 0xb5, 0xf8, 0xed,
  0xb4, 0x48, 0x06, 0xe7, 0x0d, 0x04, 0xac, 0xbe, 0x1c, 0x25, 0x13, 0xe0,
  0x18, 0xd8, 0x33, 0xb1, 0xec, 0x5f, 0x58, 0x4c, 0xd0, 0xa1, 0x9a, 0x9a,
  0x41, 0x20, 0xb6, 0xb1, 0x17, 0x2f, 0xfb, 0xf5, 0xb9, 0xce, 0x17, 0xde,
  0xc0, 0x01, 0x16, 0x51, 0xb7, 0x59, 0xab, 0x17, 0xff, 0xcf, 0x42, 0x59,
  0xff, 0xe0, 0x34, 0xa6, 0x42, 0xc4, 0xc8, 0xf5, 0x9f, 0x31, 0x34, 0xf0,
  0xc7, 0x16, 0x0d, 0x21, 0xf2, 0x14, 0x3d, 0x00, 0xce, 0x1a, 0xf0, 0x2e,
  0x4a, 0xe2, 0x0b, 0x21, 0x9c, 0xcc, 0x62, 0x5f, 0x27, 0x9d, 0x5b, 0xec,
  0x5c, 0xd1, 0xb6, 0x3c, 0xa2, 0x3c, 0x36, 0xcb, 0x0e, 0xeb, 0x25, 0x22,
  0xa8, 0xf4, 0x03, 0x42, 0x2d, 0xa0, 0x9b, 0x4a, 0xd5, 0xf6, 0xd4, 0x29,
  0xba, 0x11, 0xb2, 0xea, 0xab, 0xb8, 0x5b, 0xd1, 0xfc, 0x2f, 0xcd, 0xc4,
  0xc4, 0x4c, 0xaa, 0x38, 0x2a, 0xd2, 0xb5, 0x29, 0x09, 0xbc, 0xd1, 0xb1,
  0x32, 0xd2, 0xcf, 0x26, 0xdf, 0xae, 0x17, 0x33, 0x09, 0xe1, 0xd6, 0x23,
  0x04, 0x0f, 0xad, 0x3d, 0xa7, 0xa1, 0x4e, 0x45, 0x1c, 0x0d, 0x58, 0x45,
  0x97, 0xb8, 0x19, 0x49, 0xd6, 0x35, 0xaa, 0x14, 0x47, 0xc2, 0xc7, 0xb3,
  0x4e, 0x10, 0xa2, 0xf6, 0x38, 0xb8, 0x3a, 0x31, 0x5d, 0x44, 0xba, 0xa4,
  0x48, 0xb5, 0x5e, 0xbf, 0xb0, 0x3e, 0x27, 0xe5, 0x04, 0x9b, 0x2a, 0x52,
  0xca, 0x42, 0x3d, 0x1a, 0xb7, 0x5c, 0xb0, 0xbd, 0x5a, 0xdb, 0xed, 0xfb,
  0xe3, 0xb5, 0xef, 0x38, 0xa0, 0x3d, 0x4b, 0x23, 0x12, 0x9b, 0xba, 0x60,
  0xb2, 0x13, 0x3d, 0xf5, 0xf2, 0xb5, 0x9d, 0x40, 0xe8, 0x2d, 0x19, 0xc1,
  0xe1, 0x24, 0x1c, 0xcb, 0x46, 0xc7, 0xfc, 0x28, 0x4e, 0xbd, 0xa5, 0xd2,
  0xd6, 0xf8, 0x19, 0xe2, 0x11, 0xe5, 0x4c, 0x4b, 0x09, 0x08, 0x34, 0xe0,
  0x5f, 0x47, 0x1b, 0x4d, 0x4e, 0x4a, 0xab, 0x41, 0x99, 0x1b, 0x0c, 0x4e,
  0x57, 0xff, 0x17, 0x3e, 0x3e, 0xf3, 0x47, 0xc8, 0xbf, 0x53, 0x30, 0xa2,
  0x0d, 0x98, 0xb0, 0xce, 0xa3, 0x1a, 0xe4, 0x01, 0xab, 0xd2, 0xb4, 0xcf,
  0x53, 0xed, 0xdf, 0xa5, 0x0d, 0xf7, 0xb8, 0x1f, 0xe6, 0xaa, 0xe8, 0x9e,
  0xb1, 0x5f, 0x39, 0xc4, 0xba, 0x41, 0xa7, 0xbb, 0x14, 0xb9, 0xc8, 0x1d,
  0x58, 0xb5, 0x12, 0x31, 0xeb, 0xe5, 0xb1, 0xb2, 0xfc, 0x1c, 0x9f, 0xe7,
  0x30, 0xfc, 0xd1, 0x02, 0x29, 0x26, 0x9a, 0x3b, 0xf9, 0xc1, 0x46, 0x19,
  0xa1, 0xbd, 0xdd, 0xa6, 0xfa, 0xcb, 0xc2, 0xc1, 0x1a, 0x32, 0x44, 0xdd,
  0x1f, 0xbd, 0xe9, 0x17, 0x1f, 0xff, 0x39, 0xa2, 0x22, 0xa6, 0xd2, 0x50,
  0x10, 0xc9, 0x5f, 0xe9, 0xac, 0x4f, 0x34, 0xc0, 0xdf, 0x3a, 0x3e, 0xb0,
  0xc0, 0x63, 0xb2, 0x56, 0x50, 0x45, 0x06, 0xbd, 0xe1, 0x4a, 0xc8, 0x50,
  0xff, 0x1b, 0xe9, 0xa4, 0x33, 0x2d, 0x2d, 0xf0, 0x49, 0xe8, 0xec, 0xb4,
  0xc5, 0xe4, 0x1a, 0x05, 0xaf, 0xdd, 0x28, 0x07, 0xb1, 0xd4, 0xbc, 0x95,
  0xa1, 0x47, 0x25, 0x45, 0x03, 0xff, 0xe6, 0x9a, 0xb7, 0xa1, 0xaf, 0x5a,
  0xb3, 0x4c, 0x0f, 0x48, 0xf0, 0x0b, 0x1c, 0x1e, 0xb6, 0x39, 0xa8, 0xf7,
  0x35, 0x26, 0xb9, 0xf0, 0xb7, 0x31, 0x54, 0xb6, 0x3d, 0x55, 0xbc, 0x54,
  0x2c, 0x40, 0x22, 0x95, 0xb6, 0x9e, 0x5e, 0xdd, 0x1a, 0x28, 0x35, 0x32,
  0x50, 0x0c, 0x08, 0x37, 0xdf, 0x2b, 0x16, 0x5c, 0xaa, 0xb9, 0x4a, 0xc0,
  0x97, 0xc9, 0x16, 0x13, 0xb1, 0x1e, 0x5a, 0xfc, 0xe1, 0xd8, 0x3d, 0xf2,
  0xca, 0x0e, 0x30, 0xa9, 0xc7, 0x45, 0xe2, 0xac, 0x40, 0x33, 0x25, 0xfb,
  0xdf, 0x45, 0xb4, 0x54, 0xe6, 0x19, 0x9b, 0xee, 0xac, 0xea, 0xc5, 0xad,
  0x1a, 0xda, 0xef, 0xe0, 0xbb, 0xa1, 0xe8, 0x3b, 0x0a, 0xcf, 0xf1, 0x29,
  0xab, 0x50, 0x01, 0x02, 0xff, 0xe3, 0xaa, 0x34, 0x1c, 0xf5, 0xc6, 0xd0,
  0x52, 0xe5, 0x59, 0x59, 0x61, 0x0d, 0xdd, 0x38, 0xff, 0x24, 0x5e, 0x09,
  0xd8, 0x1b, 0x32, 0x4a, 0x4b, 0x0e, 0x52, 0xb4, 0xa3, 0xbc, 0xa6, 0xa0,
  0x27, 0x5b, 0xaa, 0xa2, 0xf7, 0xfd, 0xce, 0x9b, 0x03, 0x42, 0xd1, 0xa9,
  0x05, 0x52, 0xe7, 0x01, 0x45, 0x48, 0x23, 0xe1, 0xc6, 0x39, 0xf0, 0x0e,
  0xf3, 0xef, 0xd9, 0xbf, 0x36, 0xaf, 0xcc, 0xc5, 0x15, 0xac, 0x53, 0xcd,
  0x06, 0x25, 0x13, 0xa5, 0xa4, 0x40, 0xf0, 0xe6, 0xcd, 0xcf, 0xc2, 0xce,
  0x2d, 0x06, 0x64, 0x3a, 0xf0, 0xa5, 0x9f, 0xe4, 0x03, 0x1f, 0xac, 0xcb,
  0xf4, 0x17, 0xa9, 0x37, 0xaa, 0x3c, 0xe6, 0x36, 0xc7, 0xd5, 0x54, 0xe8,
  0xbb, 0x21, 0xf3, 0x9f, 0x37, 0x9d, 0x01, 0xbc, 0x19, 0xd6, 0xe0, 0x41,
  0xef, 0x43, 0x16, 0x50, 0x1e, 0x41, 0xd8, 0x3b, 0x20, 0xba, 0x36, 0x17,
  0x39, 0x01, 0x30, 0x03, 0x21, 0x3a, 0xd9, 0x30, 0x30, 0xae, 0x4d, 0x4d,
  0x11, 0x3b, 0x34, 0x95, 0x50, 0xdb, 0x95, 0xc3, 0xd2, 0xbb, 0x31, 0xe2,
  0x28, 0xe4, 0x00, 0x81, 0xab, 0x2d, 0xb4, 0xe1, 0xfc, 0xcb, 0xa2, 0xec,
  0xe4, 0x07, 0x42, 0xa2, 0x4b, 0x33, 0x81, 0xb4, 0x31, 0x0e, 0xf3, 0x51,
  0x0a, 0xee, 0x94, 0x33, 0xe2, 0xfb, 0xe6, 0x48, 0x3f, 0xa4, 0x3b, 0xf7,
  0xc8, 0x51, 0xa3, 0x0d, 0x16, 0x3d, 0xad, 0x4b, 0xb3, 0x05, 0xa9, 0x52,
  0x19, 0x52, 0x40, 0xf6, 0xd0, 0x2f, 0x23, 0x4f, 0x88, 0x2c, 0xf9, 0xfc,
  0xb1, 0xa3, 0xfa, 0x11, 0xe6, 0x24, 0x25, 0x35, 0xfb, 0xf5, 0x14, 0x3c,
  0xe2, 0xb8, 0xef, 0x27, 0x1e, 0xc1, 0xdc, 0xcf, 0xa6, 0x21, 0xf2, 0x04,
  0x13, 0x0c, 0xe6, 0x04, 0xf8, 0x3b, 0x3a, 0xba, 0x45, 0x22, 0xf8, 0x1f,
  0xe4, 0xe7, 0xd1, 0xec, 0x46, 0xf3, 0x14, 0x46, 0xbf, 0x18, 0xca, 0x1c,
  0xa1, 0x39, 0x9b, 0x1e, 0x26, 0xf5, 0x1a, 0x95, 0xe5, 0xd7, 0x45, 0x3d,
  0xc2, 0x20, 0xed, 0x45, 0xa9, 0xe0, 0x63, 0x07, 0xa6, 0xed, 0x52, 0x53,
  0x17, 0xfc, 0xc3, 0x08, 0x18, 0x36, 0xf1, 0xf1, 0xc0, 0x32, 0x53, 0x60,
  0xb4, 0x9b, 0xaa, 0x47, 0x3a, 0x9b, 0x59, 0x1d, 0xc5, 0xa8, 0xff, 0x46,
  0x00, 0x2e, 0x10, 0x1b, 0xf1, 0x34, 0xca, 0x29, 0x33, 0x4b, 0x16, 0xf6,
  0x02, 0x3a, 0xec, 0x55, 0xe2, 0x1d, 0x1f, 0x9e, 0x09, 0xd3, 0xda, 0xc8,
  0xc5, 0xc3, 0x03, 0x23, 0xf3, 0x2b, 0xe2, 0x60, 0x15, 0xa4, 0xb7, 0xa4,
  0x1e, 0xd0, 0x17, 0x0b, 0xfe, 0xc4, 0xa5, 0xac, 0x1f, 0xab, 0x3d, 0xa0,
  0x1e, 0xf1, 0xf0, 0x4e, 0x14, 0xb1, 0xb1, 0x54, 0xbf, 0x02, 0x3e, 0xc3,
  0xef, 0x07, 0x0b, 0x5f, 0xd1, 0xa9, 0xdc, 0x3d, 0xe6, 0xa3, 0x62, 0xe3,
  0xd1, 0x4b, 0x49, 0xdf, 0x4c, 0xa0, 0xd2, 0xb5, 0xcc, 0x54, 0x58, 0xda,
  0x03, 0xab, 0x3c, 0xd3, 0x29, 0xc5, 0x5b, 0xba, 0x9e, 0x1b, 0x2c, 0x3b,
  0x49, 0xc6, 0x4b, 0xf2, 0x5f, 0x1f, 0xcd, 0xa0, 0xb3, 0x20, 0x5e, 0xaa,
  0xd8, 0xd8, 0x1d, 0x05, 0xb3, 0x06, 0x41, 0xa6, 0x5b, 0x11, 0x00, 0x39,
  0xdc, 0xb2, 0xc8, 0x32, 0x0c, 0xaa, 0x5a, 0x55, 0x4e, 0xa1, 0xfc, 0xfa,
  0x00, 0x4f, 0x51, 0xda, 0x10, 0x2c, 0x09, 0x27, 0xc5, 0x0b, 0x3c, 0xc3,
  0x1d, 0xe5, 0x97, 0x1c, 0x26, 0xa2, 0x34, 0x92, 0x4d, 0xee, 0x41, 0xad,
  0xab, 0x3f, 0x4a, 0xde, 0x3d, 0x2e, 0xab, 0xfc, 0xbb, 0xd8, 0x2d, 0x4b,
  0xa2, 0x20, 0xfe, 0x2d, 0x95, 0x31, 0xc0, 0xc9, 0xf0, 0xfa, 0x10, 0x9a,
  0x47, 0xd2, 0xcd, 0xc6, 0x45, 0xd7, 0x44, 0xdb, 0x4a, 0x35, 0xa4, 0xe3,
  0x42, 0xde, 0x21, 0xcf, 0x0a, 0x13, 0xe3, 0xef, 0xda, 0x04, 0x02, 0x1f,
  0xba, 0x4f, 0x03, 0x1b, 0xaf, 0xec, 0xc9, 0xcf, 0xf2, 0xb2, 0x57, 0x10,
  0xf0, 0xab, 0x14, 0x5c, 0xe5, 0x9a, 0xac, 0xf1, 0x55, 0xa8, 0xf4, 0x20,
  0x1b, 0xcc, 0x29, 0x9e, 0x34, 0x2f, 0xe4, 0xf0, 0xf8, 0x62, 0x39, 0xf2,
  0x5f, 0xc5, 0x56, 0xff, 0xd1, 0x51, 0xeb, 0x97, 0x1d, 0xe9, 0x05, 0xe4,
  0xcd, 0xe0, 0xee, 0xfd, 0xe5, 0xdf, 0xf0, 0xfe, 0xbb, 0x3b, 0x2e, 0x5e,
  0xec, 0xe5, 0x0e, 0x54, 0x3a, 0xde, 0x4f, 0x08, 0x12, 0x33, 0xfb, 0x10,
  0x0f, 0xf2, 0x07, 0xde, 0x0d, 0xfc, 0x1f, 0xc0, 0xe6, 0xc1, 0x30, 0xe8,
  0xf4, 0x3b, 0xdb, 0xf1, 0xb7, 0x2e, 0xa8, 0x40, 0xbd, 0xef, 0x1f, 0x30,
  0x1b, 0xe2, 0x01, 0x08, 0xc7, 0x96, 0x46, 0xed, 0x9d, 0xee, 0x0f, 0xca,
  0x08, 0x38, 0x56, 0x4a, 0xc0, 0xef, 0x3d, 0x21, 0xab, 0x4a, 0xbc, 0x55,
  0x4a, 0x3d, 0x1f, 0x46, 0x5d, 0x5a, 0xf9, 0x55, 0xdb, 0xd0, 0xd7, 0x47,
  0x35, 0xea, 0x9d, 0xd6, 0x26, 0xc2, 0x4a, 0xaa, 0x02, 0x34, 0x46, 0x42,
  0xd2, 0xba, 0xf9, 0xcd, 0x25, 0x3b, 0xe3, 0x2e, 0xcb, 0x18, 0x95, 0x1c,
  0x42, 0xae, 0x99, 0xf7, 0xd9, 0x9f, 0x07, 0xf8, 0xa3, 0xe9, 0xb0, 0x97,
  0x9b, 0x0b, 0x38, 0x4a, 0xff, 0x29, 0x4d, 0x5e, 0x10, 0xd9, 0xee, 0xb2,
  0x49, 0xe2, 0x9e, 0x1c, 0xff, 0x53, 0xeb, 0x31, 0x5d, 0x0f, 0x27, 0x18,
  0xc5, 0xd4, 0x02, 0xe1, 0xe8, 0x31, 0x1c, 0xb1, 0x3b, 0x0f, 0xda, 0x4f,
  0xb0, 0x9d, 0x41, 0x01, 0x2c, 0xe1, 0x3c, 0x54, 0x4c, 0xac, 0xea, 0x9f,
  0x3e, 0xdb, 0xb3, 0x9e, 0x51, 0xff, 0x37, 0x38, 0xf4, 0xa6, 0x4e, 0x45,
  0xae, 0xab, 0x05, 0xb4, 0x1b, 0x24, 0x00, 0xd4, 0x03, 0xee, 0xb6, 0x98,
  0x04, 0x3a, 0x43, 0x26, 0xc8, 0x61, 0xe5, 0x0f, 0xf5, 0x23, 0x37, 0x16,
  0x60, 0x64, 0x1c, 0xfc, 0x5c, 0x19, 0x0e, 0x32, 0x29, 0x5e, 0xb9, 0xd6,
  0x30, 0xaf, 0xb2, 0xed, 0xc9, 0xf6, 0x1d, 0x30, 0xc8, 0x54, 0xa8, 0xa3,
  0x53, 0x9a, 0xe1, 0x01, 0x0e, 0xdf, 0xef, 0xe7, 0xa2, 0x4d, 0x61, 0xe7,
  0x39, 0xda, 0x4c, 0x45, 0xf2, 0xe2, 0xdd, 0xa2, 0xa2, 0xc0, 0xb6, 0x4b,
  0x3c, 0xfb, 0x27, 0xde, 0xcf, 0xe5, 0x32, 0x2f, 0x1f, 0x5a, 0x38, 0xc7,
  0xc9, 0xa0, 0xa4, 0xc9, 0xa0, 0xff, 0xb2, 0xac, 0xe5, 0xf6, 0xbc, 0xfb,
  0xb1, 0xc8, 0x27, 0xea, 0xf1, 0x2f, 0x9f, 0x2c, 0xa3, 0xe7, 0xd3, 0x22,
  0x16, 0xb5, 0x50, 0x20, 0xc9, 0xa3, 0xc0, 0xc5, 0xf6, 0x02, 0x14, 0xbd,
  0x0f, 0x06, 0xc7, 0x29, 0x1e, 0xed, 0x02, 0x4d, 0xbc, 0xf8, 0x61, 0xed,
  0x0e, 0x3a, 0x97, 0x96, 0xdd, 0x06, 0x0e, 0xe4, 0xfb, 0xf1, 0xb3, 0xde,
  0x0a, 0xca, 0x38, 0xe9, 0xfe, 0x58, 0xd4, 0xb4, 0x64, 0x10, 0x4b, 0xf8,
  0xb8, 0xc2, 0x50, 0x43, 0x1b, 0xb9, 0x35, 0x50, 0xfd, 0xf1, 0xd2, 0x45,
  0xd8, 0x4b, 0xc5, 0x43, 0x41, 0x2b, 0x21, 0x56, 0xc2, 0xb1, 0xae, 0x98,
  0xf8, 0xf4, 0x33, 0xc7, 0x1a, 0x00, 0x3d, 0xb9, 0x44, 0x1a, 0xc2, 0x04,
  0x03, 0xd0, 0x2d, 0x22, 0x15, 0x3e, 0x0e, 0xf3, 0x07, 0x42, 0xae, 0xc1,
  0x10, 0xc0, 0x06, 0xdf, 0x25, 0x4f, 0x57, 0x42, 0xb7, 0x16, 0xff, 0xda,
  0xfd, 0xa3, 0xed, 0x2a, 0x03, 0x1e, 0x46, 0x54, 0xd0, 0x18, 0xb7, 0x07,
  0xb5, 0xf0, 0xbb, 0x58, 0x19, 0x5e, 0x10, 0xfe, 0x0f, 0xc6, 0x58, 0xa8,
  0xf8, 0xa1, 0xf3, 0x62, 0xce, 0x5c, 0x07, 0xe4, 0x33, 0x4d, 0x0e, 0x02,
  0xcc, 0x18, 0x66, 0xde, 0x4a, 0x0b, 0x4a, 0xd6, 0xc7, 0x20, 0xf4, 0x34,
  0x35, 0xa7, 0xe2, 0xab, 0xe7, 0x1a, 0xaf, 0xa7, 0x31, 0x39, 0xe0, 0xbe,
  0xf9, 0x0b, 0xe7, 0xf6, 0xb4, 0xe4, 0x25, 0xa9, 0x47, 0x61, 0xb9, 0x1b,
  0xa8, 0x10, 0xe8, 0xbb, 0xb6, 0x36, 0x28, 0x12, 0x3a, 0xdc, 0x47, 0x9a,
  0xae, 0x9d, 0x2d, 0x0e, 0x22, 0xa0, 0x46, 0x00, 0x38, 0x3e, 0x28, 0xd5,
  0xda, 0xaa, 0xa5, 0xd6, 0x62, 0x3c, 0x15, 0xc4, 0x1c, 0xd1, 0xa3, 0x35,
  0xbb, 0xd3, 0xbd, 0xcc, 0xa3, 0xa5, 0xb3, 0x46, 0x18, 0xf5, 0x36, 0x9c,
  0xed, 0xc0, 0x14, 0xb8, 0x51, 0x5c, 0xc6, 0xd4, 0x39, 0xa3, 0xa8, 0x51,
  0xc8, 0x5e, 0xd2, 0x62, 0x1b, 0x23, 0x98, 0xfe, 0xf7, 0xc2, 0xb4, 0xd7,
  0xdb, 0xd8, 0x2f, 0xf7, 0x10, 0xd9, 0xc0, 0x54, 0xd2, 0xa4, 0xf7, 0x41,
  0xd9, 0xc4, 0x28, 0x17, 0xf6, 0x34, 0xf0, 0x3f, 0xe2, 0xb3, 0x26, 0xdc,
  0x1a, 0xe4, 0x98, 0x9a, 0x50, 0x20, 0xba, 0xbf, 0xe5, 0x18, 0x38, 0x46,
  0xc6, 0x3f, 0xf2, 0xa8, 0x61, 0x4b, 0x61, 0x42, 0xe3, 0x48, 0x14, 0x09,
  0xee, 0x2d, 0x17, 0x49, 0x4e, 0xf4, 0xb4, 0xa8, 0x2e, 0x2f, 0xf0, 0x59,
  0x22, 0xe2, 0x3a, 0x52, 0xd6, 0x31, 0x9a, 0x37, 0x97, 0x39, 0x25, 0xf6,
  0xec, 0x27, 0x1e, 0xc3, 0xd7, 0xce, 0xd9, 0x13, 0x0c, 0x99, 0x04, 0x1d,
  0x99, 0xc0, 0xbc, 0x38, 0x1c, 0x0e, 0xac, 0xc5, 0x2b, 0x22, 0xd3, 0xa7,
  0xc1, 0xdf, 0x02, 0xb1, 0xf1, 0xd6, 0x51, 0xb4, 0x9d, 0xc2, 0x92, 0xc8,
  0xb9, 0x28, 0xfe, 0xed, 0xec, 0xcc, 0x23, 0x1d, 0x2d, 0xd1, 0x57, 0x0d,
  0x47, 0xc0, 0x9e, 0x25, 0xfa, 0x2f, 0xe5, 0xdb, 0x50, 0x34, 0x07, 0xec,
  0xb0, 0x4f, 0x46, 0x52, 0x51, 0x28, 0x99, 0xa5, 0xd0, 0x05, 0xb6, 0x40,
  0x4e, 0x52, 0x54, 0x40, 0xbf, 0x45, 0xe6, 0x43, 0x11, 0x2f, 0x47, 0xfc,
  0x9c, 0xc4, 0xeb, 0x01, 0xb9, 0xf7, 0x9d, 0x39, 0xd5, 0x42, 0xb6, 0x59,
  0xe6, 0xf9, 0xf8, 0x49, 0x08, 0xad, 0x47, 0xd3, 0xc3, 0x15, 0x9f, 0xba,
  0x4a, 0xae, 0x3e, 0xd0, 0xda, 0x0b, 0xa1, 0x32, 0xab, 0x49, 0xae, 0xed,
  0xf0, 0x27, 0x10, 0x22, 0xb6, 0xf4, 0x21, 0xb6, 0xb8, 0x22, 0xca, 0xd2,
  0x27, 0x0b, 0xbe, 0x15, 0xe7, 0xa8, 0xa4, 0x60, 0x49, 0x26, 0x1d, 0x5c,
  0x35, 0x47, 0xe4, 0xf8, 0xb1, 0xa1, 0x3a, 0x9d, 0xbd, 0x43, 0x45, 0x9d,
  0xb9, 0xa7, 0xc3, 0x44, 0x09, 0x9d, 0xd4, 0x9d, 0xe8, 0xbc, 0x4e, 0x36,
  0x5a, 0x53, 0xc5, 0xef, 0xce, 0x2c, 0xc3, 0x11, 0xb3, 0x1d, 0x48, 0xf2,
  0x46, 0xeb, 0xf7, 0x3a, 0x9d, 0xe4, 0xf6, 0x50, 0xa2, 0xc5, 0xfb, 0x08,
  0x10, 0xdc, 0xeb, 0xac, 0xd9, 0xef, 0xd9, 0xdf, 0xa6, 0x53, 0x32, 0xba,
  0x08, 0xbd, 0x30, 0x03, 0x2f, 0xb4, 0xe3, 0xaf, 0x42, 0xf5, 0x01, 0x5f,
  0xd6, 0xc5, 0x32, 0xdf, 0xa4, 0x11, 0xe5, 0xbb, 0x4d, 0xd1, 0x38, 0x10,
  0x94, 0x31, 0xb2, 0x30, 0xc4, 0xc1, 0xfa, 0x44, 0x17, 0x9b, 0x1c, 0x9c,
  0xc3, 0x4a, 0x23, 0x0c, 0xb3, 0x40, 0x25, 0x25, 0xbf, 0xf3, 0xe6, 0x2d,
  0xdc, 0xc7, 0x34, 0xc7, 0x9b, 0xa5, 0x33, 0xfb, 0x45, 0xd5, 0xf5, 0x58,
  0x28, 0xd0, 0x2d, 0x0e, 0x52, 0x26, 0xb8, 0x62, 0x08, 0x5d, 0x29, 0xf7,
  0x13, 0x29, 0xa8, 0xce, 0xf5, 0xee, 0x18, 0xe3, 0xbb, 0x54, 0x56, 0xfa,
  0x2f, 0xa6, 0xa9, 0xb4, 0x2e, 0x45, 0x26, 0xaf, 0x20, 0xe3, 0x9c, 0xad,
  0x24, 0xde, 0x49, 0xb0, 0xc2, 0x21, 0x9e, 0x00, 0xf8, 0x3f, 0x0f, 0xee,
  0x57, 0x03, 0x08, 0x00, 0xa8, 0x57, 0x3e, 0x5e, 0x28, 0x00, 0xc3, 0x30,
  0x0f, 0x32, 0x96, 0x09, 0x1d, 0x24, 0xbb, 0x05, 0x9d, 0xd7, 0x4f, 0x26,
  0x23, 0x27, 0xcc, 0x15, 0x47, 0x25, 0x52, 0x56, 0x9c, 0x97, 0xe4, 0xbf,
  0x17, 0xc8, 0xed, 0x0c, 0x10, 0x3b, 0x20, 0xd7, 0x99, 0x06, 0xb0, 0xdf,
  0x5e, 0xde, 0xae, 0xe2, 0x28, 0x5c, 0xaf, 0xee, 0x59, 0xbf, 0x0b, 0x48,
  0xdb, 0x95, 0xbf, 0xa1, 0x24, 0xcb, 0x97, 0x06, 0xf7, 0xdb, 0xc6, 0xa9,
  0xe2, 0xd1, 0xf7, 0x3c, 0x47, 0x96, 0xbf, 0x49, 0xa8, 0xde, 0xd1, 0x07,
  0x13, 0xf3, 0x22, 0x20, 0xba, 0xbf, 0xd8, 0x38, 0xb4, 0xbe, 0x0b, 0xff,
  0x26, 0xf3, 0xe9, 0x1d, 0xe8, 0xfd, 0x1a, 0xa7, 0x37, 0x0d, 0x07, 0x34,
  0xfb, 0x89, 0xfb, 0x51, 0xd6, 0xff, 0x1a, 0xdb, 0x27, 0x37, 0x12, 0xe8,
  0xa7, 0x9d, 0xee, 0x4f, 0xfe, 0xa1, 0x10, 0x4f, 0xa3, 0x10, 0x08, 0x2f,
  0xf6, 0x2b, 0x31, 0x4d, 0xa3, 0xe4, 0xee, 0x2b, 0x02, 0xd8, 0x2a, 0x46,
  0x04, 0x38, 0x1f, 0xe9, 0xed, 0x41, 0x1e, 0xee, 0x14, 0xb3, 0x1e, 0x5b,
  0xc3, 0x9f, 0xec, 0x11, 0x96, 0x20, 0xeb, 0x24, 0x12, 0x2b, 0x97, 0x2f,
  0x35, 0xbc, 0x0c, 0x0b, 0x2f, 0x19, 0x49, 0xd6, 0xef, 0xcd, 0x54, 0xe6,
  0xcf, 0xda, 0xf9, 0x4f, 0x1b, 0x4a, 0x3c, 0xd0, 0xbb, 0x30, 0x1a, 0xd4,
  0x37, 0xe5, 0xed, 0xae, 0xc8, 0x0b, 0x0f, 0xf6, 0xfd, 0x18, 0x4e, 0xb4,
  0x44, 0x39, 0xda, 0xf6, 0x5f, 0xcb, 0x94, 0x57, 0xa9, 0xd0, 0xf0, 0xd4,
  0x0f, 0x4f, 0xc4, 0xaf, 0x29, 0xe6, 0x97, 0x1f, 0xef, 0x1e, 0xea, 0xe9,
  0x36, 0x5e, 0xbd, 0xc5, 0x45, 0xb6, 0xa4, 0x58, 0x61, 0xa8, 0x5b, 0xc2,
  0xe4, 0xfd, 0xac, 0xcd, 0x51, 0xbc, 0xed, 0x55, 0xb1, 0x26, 0xdf, 0xfe,
  0x4d, 0xd6, 0xdd, 0xeb, 0x2a, 0xb2, 0xb1, 0xdf, 0x59, 0xbf, 0xbb, 0x9f,
  0x2d, 0xf2, 0x65, 0x31, 0x45, 0xb4, 0xc2, 0xe1, 0xfd, 0xcd, 0xbe, 0xc7,
  0x37, 0x04, 0xb5, 0x18, 0xd8, 0xd5, 0xc9, 0x2d, 0xbb, 0x63, 0x43, 0x4b,
  0xbd, 0x37, 0x32, 0xef, 0xe2, 0xf1, 0xca, 0xe5, 0x5a, 0xb7, 0x1b, 0x42,
  0x9c, 0x46, 0x2b, 0xf8, 0x0c, 0xdc, 0xcd, 0x59, 0xd6, 0x04, 0x00, 0x0b,
  0x1b, 0x9a, 0x46, 0xf9, 0xe4, 0x56, 0xd5, 0x3f, 0xe3, 0x06, 0xad, 0xa5,
  0x1c, 0xc1, 0x5e, 0xca, 0xd0, 0x17, 0x00, 0x16, 0x35, 0x0f, 0x3e, 0x4b,
  0x07, 0xfe, 0x97, 0x24, 0xcc, 0xdc, 0x0f, 0x3f, 0xbb, 0xce, 0x1a, 0x42,
  0xf9, 0xea, 0xb3, 0x5e, 0xe1, 0x02, 0x48, 0xb9, 0xfa, 0xf5, 0x5b, 0xf6,
  0x1d, 0x2e, 0x53, 0xe5, 0x09, 0x17, 0x32, 0xd8, 0x1f, 0xb7, 0xce, 0xe6,
  0xf7, 0x93, 0xc3, 0x23, 0xee, 0x5e, 0xc1, 0xe1, 0x4c, 0x5e, 0x50, 0xe5,
  0x11, 0x94, 0x0d, 0x9f, 0xd6, 0xd6, 0xd9, 0x2f, 0x9f, 0xf8, 0x3e, 0x9d,
  0xdb, 0xe1, 0x13, 0xdc, 0x50, 0x3f, 0x3a, 0x35, 0x22, 0xc4, 0x25, 0xd7,
  0xfd, 0xa3, 0x13, 0x1c, 0x3f, 0x0e, 0x1f, 0xb2, 0xed, 0x10, 0x3a, 0x0a,
  0xb0, 0xec, 0xc4, 0x06, 0x62, 0xbe, 0x9f, 0x5d, 0x4e, 0x41, 0xb3, 0x56,
  0x4b, 0x2a, 0x5a, 0xaf, 0x0b, 0xea, 0xe1, 0xa9, 0xbf, 0x03, 0x3e, 0xc8,
  0x01, 0x63, 0x15, 0xee, 0x32, 0x3c, 0x16, 0xad, 0xa2, 0x59, 0x16, 0xa7,
  0xc0, 0xf9, 0xe1, 0xc5, 0x34, 0xb7, 0xaa, 0xbc, 0xf7, 0xa6, 0x1f, 0xa4,
  0x3b, 0xd0, 0x3d, 0x52, 0xe5, 0x35, 0x36, 0x39, 0x9c, 0x07, 0xb1, 0xad,
  0x0e, 0xe4, 0xf4, 0xb8, 0xc4, 0xef, 0x28, 0xbd, 0x9f, 0xb0, 0x36, 0x4c,
  0x9f, 0x2e, 0xc9, 0xc9, 0x60, 0x3b, 0x28, 0x59, 0x0e, 0x39, 0x3d, 0x38,
  0x29, 0xaa, 0x60, 0x2b, 0xe0, 0xe2, 0xa5, 0xfc, 0x58, 0xb6, 0x24, 0x04,
  0x56, 0x3c, 0x34, 0xed, 0x01, 0x54, 0xee, 0x58, 0x99, 0xc5, 0x09, 0xee,
  0xf9, 0xcc, 0xcb, 0xdf, 0x64, 0x11, 0xc1, 0x10, 0x03, 0xca, 0xb7, 0xc3,
  0x08, 0xb7, 0x07, 0x37, 0x1f, 0xd5, 0xad, 0x41, 0xa5, 0x4f, 0xff, 0xb2,
  0xbb, 0x3c, 0xc3, 0x0b, 0xc4, 0x58, 0xaf, 0xc7, 0xdc, 0xda, 0xd8, 0x9f,
  0x3b, 0x44, 0xdb, 0x98, 0x08, 0xfd, 0x51, 0x23, 0x02, 0xcb, 0x56, 0xcd,
  0x17, 0x35, 0xcd, 0xc1, 0x51, 0x46, 0x0c, 0xa7, 0x93, 0xcd, 0xeb, 0x93,
  0x2d, 0x3e, 0x52, 0xd6, 0x2e, 0xe9, 0x53, 0xd9, 0x28, 0xa6, 0x38, 0x46,
  0xc9, 0x23, 0x94, 0x53, 0xbb, 0x59, 0x53, 0x35, 0x37, 0x08, 0x5b, 0x2c,
  0x02, 0x0e, 0x9b, 0x9d, 0xb7, 0x47, 0x29, 0xe0, 0x46, 0xf2, 0x40, 0xbd,
  0xc0, 0xda, 0x16, 0xa6, 0xdf, 0xbc, 0xa6, 0x09, 0xbd, 0x53, 0x19, 0xd1,
  0x63, 0x54, 0x4f, 0x9a, 0xc6, 0x42, 0xf1, 0xe5, 0x54, 0xa0, 0x0a, 0x05,
  0xeb, 0xf8, 0x9e, 0x19, 0x60, 0xec, 0xcd, 0x2e, 0xb4, 0x63, 0xee, 0xc0,
  0xa8, 0xcf, 0xe9, 0xbe, 0x9d, 0x3d, 0xaf, 0xbf, 0xd3, 0xca, 0x2e, 0x14,
  0x25, 0x19, 0x4f, 0xde, 0x36, 0xd8, 0x09, 0xeb, 0x24, 0xfe, 0xcc, 0xcb,
  0x04, 0xe4, 0xd1, 0x1d, 0xfc, 0x2c, 0x0b, 0x32, 0xd7, 0xda, 0xef, 0x53,
  0xaf, 0x45, 0x05, 0x9b, 0xa6, 0x51, 0xd0, 0xff, 0x1a, 0x14, 0x5c, 0x9e,
  0xa1, 0xef, 0xd7, 0x0f, 0xef, 0xed, 0xe3, 0x1e, 0xe2, 0xc5, 0xd0, 0xc1,
  0x1f, 0xcc, 0xc0, 0xe5, 0x45, 0x3a, 0xef, 0x97, 0x05, 0xd8, 0xf3, 0xa8,
  0x49, 0x55, 0xda, 0x57, 0x59, 0xe8, 0xfd, 0x3e, 0xd0, 0x2f, 0xb2, 0xc0,
  0x57, 0xfb, 0x11, 0xe3, 0x40, 0x35, 0x40, 0x34, 0x2b, 0x29, 0x1b, 0x44,
  0x1b, 0x9c, 0xeb, 0xa0, 0x4f, 0x94, 0x58, 0xd5, 0x33, 0x8d, 0x02, 0x27,
  0xff, 0xc6, 0xa6, 0xb4, 0x0d, 0x18, 0xd3, 0xa3, 0x37, 0x2f, 0x91, 0xf6,
  0xbf, 0x09, 0x38, 0x2d, 0x28, 0xbe, 0xda, 0x21, 0xea, 0x2a, 0xf3, 0xdd,
  0xf9, 0x24, 0xf1, 0xa4, 0x01, 0x43, 0xb2, 0xbe, 0xbd, 0x39, 0x24, 0xce,
  0x1e, 0x20, 0xb4, 0x34, 0x10, 0x02, 0x28, 0xa0, 0x1f, 0x9c, 0x00, 0x00,
  0x2d, 0xff, 0x07, 0xe5, 0xa5, 0xd9, 0xd3, 0x1b, 0x4d, 0x26, 0x09, 0xe3,
  0x09, 0xa9, 0x5f, 0x1c, 0x4a, 0xad, 0xed, 0x28, 0xd3, 0x19, 0xd0, 0x63,
  0xa7, 0xce, 0xcd, 0x11, 0x4c, 0x2f, 0xe0, 0xdb, 0xa8, 0xbd, 0x58, 0xeb,
  0xf0, 0xa4, 0x9f, 0x64, 0x5e, 0xce, 0x4a, 0x59, 0xfa, 0xf1, 0xa9, 0x62,
  0x17, 0xee, 0xfb, 0x15, 0x56, 0x57, 0x05, 0xbd, 0xce, 0xdb, 0x07, 0xb4,
  0xc4, 0xfb, 0xfa, 0x9c, 0x50, 0xde, 0xc9, 0x51, 0x36, 0x1e, 0xc7, 0xeb,
  0xf6, 0x4a, 0xb6, 0x30, 0xc4, 0x40, 0xc5, 0xc6, 0xb0, 0x65, 0xa3, 0xac,
  0x08, 0xb5, 0x5e, 0x39, 0xbe, 0x33, 0xb5, 0xb8, 0xa7, 0x39, 0xb2, 0xd8,
  0xae, 0x3b, 0xc2, 0x05, 0x11, 0x32, 0xc5, 0xd2, 0x1d, 0x54, 0xcc, 0x45,
  0xa3, 0x41, 0x9e, 0xdc, 0xdd, 0x28, 0xe8, 0x05, 0x4f, 0x3e, 0xae, 0xc4,
  0x9a, 0xfb, 0xae, 0x49, 0x57, 0x22, 0x3e, 0x63, 0x11, 0x5f, 0x9f, 0xbe,
  0x04, 0xa6, 0xfe, 0x5b, 0x08, 0x93, 0x11, 0xe4, 0x1f, 0xda, 0x5a, 0xc2,
  0x9a, 0x45, 0x3f, 0x13, 0x26, 0x16, 0x36, 0xc4, 0x4a, 0x12, 0x1f, 0x01,
  0xf8, 0xa2, 0xf7, 0xd1, 0x35, 0x58, 0xbc, 0xb1, 0x41, 0xce, 0x34, 0xdc,
  0x2e, 0xcf, 0x9d, 0x38, 0xb5, 0xed, 0x24, 0x24, 0x10, 0x3b, 0x9e, 0xbc,
  0x38, 0xc7, 0xf1, 0x40, 0x94, 0x2e, 0x2d, 0xcf, 0xbc, 0x2b, 0xa2, 0x30,
  0x92, 0xb1, 0xf9, 0x58, 0xf2, 0x23, 0x3c, 0x45, 0xf9, 0x0e, 0x07, 0xe5,
  0xa2, 0xdb, 0x41, 0x0b, 0x5f, 0x13, 0xc2, 0x21, 0x00, 0xfc, 0x12, 0x0f,
  0x39, 0x3d, 0xda, 0x56, 0xf8, 0xd9, 0xdd, 0xf8, 0x35, 0x16, 0x33, 0x3d,
  0x3f, 0x31, 0x06, 0x62, 0xc7, 0xe4, 0x5b, 0xdf, 0xb5, 0x0d, 0xbc, 0x2f,
  0x2a, 0xa3, 0xbf, 0xcd, 0x0d, 0x42, 0xc9, 0x48, 0x0a, 0x4d, 0xf2, 0x0b,
  0xa0, 0x4b, 0xa1, 0xae, 0xe9, 0xae, 0x4d, 0xdd, 0x33, 0x9f, 0xb0, 0xd8,
  0xa6, 0xfb, 0x32, 0x61, 0xf2, 0x55, 0x50, 0x58, 0xe7, 0x22, 0x05, 0xd2,
  0x0d, 0xe7, 0xeb, 0x0f, 0x9e, 0x0c, 0xae, 0xbd, 0xd2, 0xf0, 0xb4, 0x9f,
  0x2b, 0x02, 0x0c, 0xab, 0x0a, 0xf6, 0xeb, 0xcc, 0x35, 0xcf, 0x0d, 0x1e,
  0x5b, 0xa4, 0x00, 0xb0, 0x28, 0x14, 0x17, 0xad, 0x0d, 0xea, 0x44, 0xc6,
  0x9e, 0x9c, 0x4d, 0xdd, 0xa9, 0x1d, 0xc0, 0x2f, 0xc1, 0xc7, 0xb5, 0x53,
  0xc0, 0xb0, 0x0c, 0xe9, 0x1f, 0xe0, 0x53, 0xfa, 0x4d, 0x4a, 0x0f, 0x52,
  0x52, 0xde, 0x2d, 0xd9, 0xb2, 0x1b, 0x14, 0x9e, 0xb2, 0xc5, 0xf2, 0x06,
  0xf9, 0x12, 0x27, 0x19, 0xd4, 0xaa, 0xa1, 0xe5, 0x54, 0xb3, 0x60, 0xce,
  0xd9, 0xcc, 0x52, 0xc3, 0x34, 0xc5, 0x00, 0x39, 0x9c, 0x03, 0xd9, 0xac,
  0x5b, 0x37, 0x21, 0xe7, 0xea, 0xa0, 0xdb, 0xb4, 0x2c, 0x39, 0xe3, 0x1f,
  0xa6, 0x34, 0xa7, 0xe3, 0xc7, 0xb6, 0xc4, 0x55, 0xb3, 0xda, 0x34, 0x2f,
  0x33, 0x5a, 0xaf, 0x4b, 0x4d, 0x12, 0xb8, 0x1a, 0xa0, 0x18, 0xb0, 0xb7,
  0x5f, 0xa0, 0x35, 0x09, 0x58, 0x26, 0xe0, 0x24, 0x25, 0xcb, 0x22, 0xff,
  0xab, 0x21, 0xd9, 0xdf, 0xc6, 0x99, 0x0b, 0x46, 0x0d, 0xb6, 0x9d, 0x10,
  0x0d, 0xba, 0x1b, 0x46, 0xed, 0xde, 0xa1, 0x13, 0xe4, 0x38, 0x5c, 0x01,
  0x06, 0xba, 0x5b, 0xb1, 0x46, 0x12, 0x20, 0xf3, 0x5e, 0x45, 0xf0, 0x09,
  0x05, 0x48, 0x64, 0x5b, 0x48, 0x9f, 0xd3, 0xbf, 0x39, 0x1a, 0xb9, 0x05,
  0x65, 0x09, 0xb1, 0x9c, 0xf9, 0xc6, 0xed, 0xff, 0xef, 0xc8, 0xa1, 0x41,
  0x9f, 0x59, 0xf4, 0x1b, 0x1e, 0xcc, 0x46, 0x4b, 0xee, 0xeb, 0xb4, 0xab,
  0xf4, 0x3a, 0xd6, 0x12, 0x38, 0xe2, 0x27, 0x03, 0xec, 0xcd, 0x5a, 0xda,
  0x07, 0x1f, 0x32, 0x52, 0xb2, 0x06, 0x41, 0xab, 0xee, 0xef, 0x0f, 0x19,
  0xf5, 0xba, 0xb2, 0x26, 0xd4, 0x64, 0xa7, 0xc2, 0xff, 0xb4, 0x4d, 0x13,
  0x3e, 0xa2, 0x00, 0x06, 0x04, 0x10, 0x35, 0x14, 0x16, 0x8b, 0xee, 0xc1,
  0x2f, 0xd9, 0x33, 0xf4, 0xa1, 0xc5, 0x1f, 0xf7, 0x3e, 0xe6, 0xbf, 0x25,
  0x00, 0xc3, 0x2c, 0xc9, 0xd0, 0xa7, 0xdd, 0x15, 0x48, 0x9c, 0x4b, 0xd4,
  0x23, 0x38, 0x32, 0x10, 0x3e, 0x24, 0xca, 0x0d, 0x8b, 0xf8, 0xc4, 0x4f,
  0xda, 0x50, 0x99, 0xce, 0xfc, 0xf6, 0xca, 0x2a, 0xcf, 0xe0, 0xef, 0x0a,
  0x08, 0xe6, 0x4c, 0x35, 0x52, 0x47, 0x98, 0x05, 0x50, 0x34, 0x90, 0xb4,
  0xca, 0xe0, 0x24, 0x1d, 0x33, 0x4c, 0xf7, 0x38, 0xdf, 0x40, 0x0c, 0x0e,
  0x1b, 0x9a, 0xf4, 0x53, 0xd9, 0x50, 0x46, 0x9b, 0x61, 0x9a, 0xbb, 0x22,
  0x50, 0xa8, 0xf0, 0xb9, 0xff, 0x0e, 0x31, 0xac, 0x4d, 0xbb, 0xbf, 0x07,
  0xe0, 0x28, 0x01, 0xac, 0x1a, 0x34, 0xb0, 0xbe, 0xb3, 0x2a, 0x3d, 0xf6,
  0xf5, 0xa2, 0x0c, 0x47, 0x0a, 0x12, 0x5e, 0xaa, 0xfb, 0xf1, 0xe8, 0xff,
  0x59, 0x02, 0x53, 0x36, 0xaf, 0xd7, 0x5d, 0xe7, 0xd2, 0x49, 0x28, 0xa3,
  0xbe, 0xcf, 0x3b, 0x40, 0x3b, 0xb5, 0xeb, 0x57, 0x03, 0xac, 0x26, 0xac,
  0x30, 0xce, 0xb1, 0xfb, 0x58, 0xcc, 0x02, 0xcf, 0x0b, 0x4d, 0x0e, 0xdc,
  0x4f, 0xdb, 0x2e, 0xa4, 0x0d, 0xbc, 0xc7, 0x54, 0x5f, 0x9f, 0xbf, 0xb1,
  0xf2, 0xa3, 0x16, 0x16, 0xbd, 0xed, 0x13, 0x41, 0x3a, 0xd0, 0xe2, 0x50,
  0xbf, 0xdf, 0x0b, 0x46, 0x97, 0x54, 0x39, 0x38, 0xe9, 0x1c, 0x19, 0xd7,
  0xd9, 0xf7, 0x18, 0x01, 0xcf, 0x0c, 0xd1, 0x16, 0x27, 0xc4, 0x5e, 0xba,
  0x99, 0x3e, 0x47, 0xde, 0x20, 0xce, 0xa1, 0xda, 0x08, 0xbb, 0xed, 0x4f,
  0x0d, 0xdb, 0x3a, 0x54, 0xf5, 0x14, 0xc9, 0xb5, 0x48, 0xb9, 0x9a, 0xbb,
  0xe2, 0x2a, 0xe6, 0x4b, 0xce, 0x54, 0x41, 0x39, 0x28, 0x0a, 0xdf, 0x04,
  0x44, 0xe6, 0x56, 0xa0, 0x29, 0xce, 0x5b, 0xd1, 0xe9, 0xa9, 0xe2, 0x18,
  0x0c, 0x3c, 0xaa, 0x45, 0x33, 0x1c, 0xa6, 0xc4, 0x30, 0x2e, 0x5d, 0x41,
  0x3e, 0x12, 0xb5, 0x20, 0xe2, 0x60, 0x28, 0x37, 0xdb, 0x21, 0xb8, 0x95,
  0xc1, 0xa2, 0xc0, 0x57, 0x08, 0x9a, 0x53, 0x29, 0xbb, 0x14, 0xa1, 0xf6,
  0x55, 0x03, 0x0e, 0xfc, 0x0f, 0xe8, 0xea, 0xc0, 0xa6, 0x16, 0xa0, 0x46,
  0xde, 0x2d, 0xe3, 0xf8, 0x5c, 0xbd, 0x48, 0xa1, 0xf6, 0xdf, 0x9e, 0xfb,
  0xfe, 0x33, 0x19, 0x1e, 0x3e, 0xbf, 0x42, 0x31, 0x45, 0x39, 0xe9, 0x5a,
  0x26, 0xa1, 0xc7, 0xd1, 0xc1, 0x60, 0xaa, 0xa1, 0xf6, 0x27, 0xb7, 0xa5,
  0x25, 0xee, 0x2a, 0xb9, 0x0a, 0x18, 0x2c, 0x32, 0xa7, 0xae, 0xfb, 0xfa,
  0xef, 0x14, 0xfa, 0x12, 0xb0, 0xb8, 0xda, 0xe2, 0x4e, 0x20, 0xcf, 0x09,
  0x3d, 0x4f, 0x44, 0xca, 0xee, 0xd0, 0xa4, 0xa9, 0x65, 0x4f, 0xc8, 0x06,
  0x0e, 0xb5, 0xed, 0xe4, 0x24, 0xc7, 0x45, 0x50, 0x47, 0x58, 0xb9, 0x4c,
  0xb1, 0xc0, 0xf1, 0x1b, 0xb8, 0xa5, 0xd6, 0x41, 0x0d, 0xac, 0x1e, 0x18,
  0x0f, 0xf7, 0xbc, 0x15, 0x53, 0xaf, 0xdf, 0xb6, 0xe7, 0x10, 0x2e, 0xc6,
  0x25, 0xb8, 0xe3, 0x21, 0xee, 0x9d, 0x27, 0x10, 0xea, 0x55, 0xcb, 0xf4,
  0xdf, 0x45, 0xc0, 0xcd, 0x17, 0xac, 0x63, 0xab, 0x46, 0x38, 0x4c, 0xb6,
  0xdf, 0x1a, 0xbe, 0xf5, 0xbd, 0x3f, 0x64, 0xdb, 0xee, 0x1f, 0x0e, 0x63,
  0xc2, 0xc6, 0x18, 0x54, 0xb7, 0x4c, 0x37, 0x09, 0x20, 0xd5, 0xc0, 0x16,
  0xf2, 0x1f, 0xa9, 0xe8, 0xb6, 0xba, 0xa5, 0x28, 0x02, 0xc0, 0xd1, 0x50,
  0xd8, 0xbe, 0xb5, 0x22, 0xed, 0x9e, 0x5a, 0x07, 0x03, 0x42, 0x1f, 0xa9,
  0xe0, 0x30, 0xee, 0xeb, 0x10, 0xe6, 0x9a, 0xb5, 0xc1, 0xc3, 0xc1, 0xa9,
  0x06, 0x4e, 0xf8, 0x4f, 0x51, 0xa5, 0x43, 0x36, 0x2b, 0x1d, 0x4d, 0xb4,
  0xdf, 0x2c, 0xd4, 0x61, 0x24, 0x45, 0xc5, 0x05, 0x40, 0x55, 0x4a, 0x97,
  0x27, 0xdf, 0x2f, 0x45, 0x22, 0xb3, 0xc8, 0x21, 0xc8, 0x59, 0xe2, 0xf3,
  0xc7, 0x9a, 0x14, 0xef, 0x13, 0x13, 0x34, 0xbf, 0x08, 0x14, 0x90, 0xe6,
  0x9d, 0xf1, 0x29, 0x97, 0x34, 0x08, 0x0b, 0x4f, 0xc5, 0xe9, 0xcb, 0x8e,
  0xad, 0xaa, 0x56, 0x55, 0x49, 0xa6, 0x07, 0x0e, 0xe0, 0xa0, 0x48, 0x20,
  0xbc, 0x9d, 0xe3, 0xdf, 0xff, 0x4e, 0x3f, 0xac, 0xa5, 0xdc, 0x0f, 0x20,
  0xa8, 0xc7, 0xd3, 0x23, 0x05, 0xbe, 0x5b, 0x30, 0x66, 0xb7, 0x9f, 0x01,
  0x17, 0x14, 0x21, 0x55, 0xbe, 0x5e, 0xf5, 0x33, 0xdc, 0xce, 0x04, 0xb7,
  0xb9, 0x12, 0xfc, 0x44, 0x41, 0x62, 0xcf, 0xa5, 0xfe, 0xda, 0xfa, 0xa5,
  0xdd, 0x20, 0x2c, 0x4e, 0x4c, 0x59, 0x08, 0xc5, 0x04, 0xce, 0x23, 0x12,
  0x60, 0x20, 0xda, 0x00, 0xa7, 0x4d, 0xe5, 0x13, 0xa4, 0xc0, 0xec, 0x59,
  0x1e, 0xbe, 0xae, 0xec, 0x44, 0x5a, 0xdd, 0x52, 0xab, 0xc3, 0x54, 0x05,
  0x52, 0x10, 0xff, 0x59, 0xbc, 0x35, 0xa2, 0x24, 0xbe, 0xfb, 0x5a, 0x18,
  0x27, 0xc2, 0x38, 0x5f, 0x28, 0xfb, 0x26, 0xff, 0x03, 0x05, 0xd1, 0x36,
  0xa4, 0x33, 0xef, 0x47, 0x08, 0xdb, 0x20, 0xb4, 0xdf, 0x1f, 0x9d, 0x04,
  0xfe, 0x40, 0x4a, 0xfb, 0x5b, 0xb4, 0xbd, 0xc6, 0xe0, 0xc9, 0xe7, 0xa9,
  0x29, 0xc6, 0x55, 0xe7, 0xd8, 0x12, 0xb0, 0x22, 0xf3, 0xe5, 0x10, 0xc6,
  0xfa, 0x98, 0x02, 0xd6, 0x0e, 0xbb, 0x22, 0xab, 0x18, 0x07, 0x08, 0xa2,
  0x0a, 0xab, 0xb6, 0x14, 0xa3, 0x23, 0x29, 0xe1, 0x52, 0x57, 0x37, 0x42,
  0xaa, 0x95, 0x31, 0x56, 0x2b, 0xf7, 0x55, 0x1f, 0xad, 0xa8, 0x3d, 0xa2,
  0xa5, 0xe4, 0xf6, 0xaf, 0x40, 0x2f, 0x34, 0x4f, 0x53, 0x06, 0xdf, 0x9f,
  0x54, 0x99, 0x97, 0x3f, 0x99, 0x1d, 0x01, 0xcc, 0x25, 0x3a, 0xd3, 0x17,
  0x1d, 0xf0, 0x1c, 0x05, 0x4b, 0x2b, 0x39, 0xf5, 0xb9, 0xf2, 0x34, 0x2a,
  0x5d, 0xa4, 0x49, 0x05, 0xa7, 0x0d, 0x3d, 0x92, 0x3e, 0xf3, 0xc5, 0xda,
  0xf3, 0xf9, 0xc1, 0xe6, 0xfe, 0xb8, 0x49, 0xce, 0xfd, 0x49, 0xbc, 0xe1,
  0x4c, 0x9a, 0x00, 0x9f, 0x38, 0xd6, 0xbc, 0x2c, 0x05, 0x08, 0xf0, 0x18,
  0xb6, 0x29, 0x9f, 0xee, 0x12, 0x34, 0x1f, 0x48, 0xe0, 0xcb, 0xad, 0x2d,
  0xb8, 0x5f, 0x42, 0x51, 0xd2, 0x17, 0xa0, 0x4c, 0x1a, 0x0a, 0xf5, 0x39,
  0xc6, 0xad, 0x61, 0xb0, 0xb5, 0xd2, 0xe2, 0xb5, 0xa0, 0x08, 0x9e, 0xff,
  0x36, 0x9a, 0xf6, 0x29, 0x41, 0x2c, 0xf3, 0x0a, 0x00, 0xfa, 0x05, 0xe6,
  0xf9, 0xd2, 0xc8, 0xf7, 0xf0, 0xc7, 0xbc, 0xdd, 0xd8, 0x07, 0xa4, 0x49,
  0xf0, 0xe3, 0xe6, 0x36, 0x40, 0xc4, 0xc1, 0x58, 0xc5, 0xb4, 0x04, 0x49,
  0x1f, 0x4b, 0x49, 0x43, 0xbb, 0xa5, 0xe8, 0xbb, 0xdc, 0xe6, 0xf8, 0xc3,
  0x62, 0xf3, 0xd2, 0x1e, 0x4d, 0xe0, 0x43, 0x07, 0x53, 0x00, 0x29, 0xfc,
  0x10, 0xa4, 0xc0, 0x28, 0x35, 0xab, 0x9f, 0xa7, 0xfb, 0xae, 0xc7, 0x33,
  0xf0, 0xc7, 0xec, 0x43, 0x16, 0xb9, 0x1a, 0x1c, 0x0e, 0x15, 0x1a, 0x3d,
  0xe1, 0xa6, 0xb9, 0xfc, 0x51, 0x65, 0xc1, 0xa6, 0xff, 0xeb, 0x28, 0xe8,
  0x0d, 0xf0, 0xd3, 0x9b, 0xe8, 0xfc, 0x3d, 0x5f, 0xa8, 0x25, 0xb8, 0x9a,
  0xda, 0xb8, 0xac, 0xf5, 0x14, 0x33, 0x40, 0x9d, 0xad, 0xc2, 0xb4, 0x50,
  0x2c, 0xdc, 0xda, 0xf0, 0x0b, 0x2f, 0xf5, 0x52, 0xd2, 0x01, 0x30, 0x46,
  0xd4, 0x9f, 0xfa, 0xe4, 0x1c, 0xf4, 0xc8, 0xfa, 0x06, 0x5d, 0x94, 0x1c,
  0x4e, 0x4b, 0x4a, 0xfe, 0x14, 0x36, 0x48, 0x98, 0x19, 0x21, 0xdf, 0xe7,
  0xc5, 0x9d, 0xaa, 0xd6, 0x45, 0xc8, 0x21, 0xda, 0x3f, 0xbb, 0xbd, 0x24,
  0x24, 0xad, 0x53, 0x44, 0x44, 0x04, 0xa4, 0x02, 0x41, 0x32, 0xc3, 0x04,
  0x23, 0x2b, 0x57, 0x09, 0xa8, 0xf9, 0x3c, 0xf4, 0xc7, 0xa7, 0x04, 0x04,
  0x23, 0x2f, 0x28, 0x39, 0x3f, 0x32, 0xdd, 0x4e, 0xbb, 0xde, 0x35, 0x56,
  0x0d, 0xe1, 0x32, 0x51, 0xa6, 0xcd, 0xac, 0xb9, 0x3c, 0xeb, 0x45, 0xac,
  0xd9, 0xda, 0xf9, 0xac, 0xba, 0x47, 0x38, 0x50, 0x98, 0x49, 0x1c, 0xaf,
  0xf6, 0xb8, 0xdb, 0x55, 0xc5, 0xf3, 0xea, 0xf9, 0xd4, 0x4a, 0x52, 0x41,
  0xdf, 0xf3, 0xc0, 0x54, 0xe1, 0x14, 0xc6, 0xac, 0x4a, 0x06, 0x07, 0x44,
  0x0f, 0x16, 0xe3, 0x39, 0xc7, 0x04, 0xf6, 0xad, 0x98, 0x11, 0xc5, 0xde,
  0xcf, 0x58, 0x5f, 0x44, 0xab, 0xb0, 0x34, 0x33, 0x5a, 0xc9, 0xd9, 0xa6,
  0xfd, 0xee, 0x9f, 0x24, 0xe9, 0x2f, 0x47, 0xb8, 0x22, 0xb9, 0xce, 0x1c,
  0xe0, 0xc8, 0xe5, 0x0d, 0xbe, 0x1a, 0x0b, 0xbc, 0x1a, 0xb3, 0xb0, 0xe6,
  0x4c, 0xe3, 0x1b, 0x30, 0x04, 0x11, 0x25, 0xa5, 0xf1, 0xb4, 0xd1, 0x8f,
  0xe1, 0xff, 0x20, 0x06, 0x44, 0x3b, 0xa6, 0x5a, 0xb0, 0x3f, 0x20, 0x3f,
  0x28, 0xcb, 0x3f, 0x55, 0x5a, 0xb8, 0x27, 0x58, 0x4d, 0xce, 0xce, 0x37,
  0xec, 0x36, 0xbc, 0xb1, 0xff, 0x9f, 0x45, 0xb8, 0xb0, 0x9f, 0x32, 0xc5,
  0x4f, 0x5a, 0xf1, 0x3d, 0x2d, 0xa0, 0xd5, 0xac, 0xe1, 0x43, 0x4c, 0xda,
  0xe0, 0x3b, 0xaf, 0x33, 0xbf, 0xff, 0xeb, 0xeb, 0x2c, 0x9e, 0xdc, 0xbc,
  0x47, 0xa3, 0x27, 0x2f, 0x15, 0x25, 0x5d, 0x47, 0x2b, 0x4b, 0xc9, 0x20,
  0x16, 0x9c, 0x14, 0xb4, 0x4d, 0xd3, 0xa3, 0x64, 0x61, 0x13, 0x30, 0xaf,
  0xa3, 0x3d, 0x54, 0xcd, 0xb6, 0xf7, 0x00, 0x33, 0xa0, 0xd0, 0x18, 0x5c,
  0xe3, 0xb8, 0xa6, 0xef, 0xce, 0x4b, 0xb4, 0xb2, 0x22, 0xe5, 0x2f, 0xbf,
  0xde, 0x9d, 0x24, 0x51, 0x96, 0x40, 0x3c, 0xef, 0xb2, 0xb3, 0xc4, 0xd2,
  0x0f, 0x50, 0xcf, 0xf9, 0x18, 0x01, 0x1c, 0x47, 0x1a, 0x12, 0xea, 0x26,
  0x21, 0xdd, 0xdb, 0x1b, 0xad, 0x0e, 0x39, 0x15, 0x45, 0x03, 0xc6, 0x57,
  0x00, 0xa0, 0xe5, 0xfb, 0xfe, 0x54, 0xfa, 0xde, 0xb2, 0x58, 0x4a, 0xb5,
  0xc0, 0x3f, 0x0e, 0xaf, 0x4b, 0xc7, 0x45, 0xb0, 0x29, 0x05, 0x43, 0x3d,
  0x93, 0xe2, 0x25, 0xa4, 0x57, 0xa7, 0x53, 0xed, 0xf5, 0x16, 0xce, 0xec,
  0x17, 0x26, 0x8f, 0x23, 0x3a, 0x15, 0xd1, 0x36, 0x0a, 0xdb, 0xcc, 0xf1,
  0x57, 0x47, 0xf3, 0x01, 0xb8, 0xb1, 0xb7, 0x0c, 0x5d, 0x9d, 0x1d, 0x37,
  0xb8, 0xda, 0x29, 0xdf, 0xd9, 0xac, 0x2f, 0x17, 0x33, 0xed, 0x54, 0xca,
  0x12, 0xb6, 0xc6, 0xd9, 0x1d, 0x29, 0x3a, 0x42, 0xef, 0x2e, 0xc9, 0x61,
  0x26, 0x53, 0xec, 0xb2, 0x09, 0x0b, 0x14, 0xd6, 0xa8, 0x57, 0xbd, 0x5c,
  0x10, 0xd9, 0x9f, 0x9d, 0x24, 0x03, 0xc1, 0xa3, 0x19, 0xe4, 0xb2, 0x98,
  0x52, 0x3e, 0xcb, 0x9b, 0xca, 0x34, 0x5e, 0x47, 0xd1, 0x07, 0x99, 0x42,
  0xd6, 0x13, 0x2f, 0x06, 0x06, 0x99, 0x4e, 0x2c, 0x28, 0xb4, 0x4d, 0xb0,
  0x5b, 0x13, 0xbe, 0x00, 0x4e, 0x20, 0xf8, 0xab, 0xac, 0x2b, 0x3b, 0xe9,
  0x5d, 0x98, 0xe8, 0x98, 0xc3, 0x25, 0x13, 0xe6, 0xee, 0x5a, 0x3e, 0x28,
  0x36, 0xd4, 0x10, 0xa6, 0xd0, 0x0b, 0x4c, 0xad, 0xf4, 0xe9, 0xa2, 0x5f,
  0xd5, 0xeb, 0x34, 0x12, 0x27, 0xbc, 0x29, 0x23, 0x3d, 0x00, 0x57, 0x37,
  0xe1, 0xa6, 0xc4, 0x9a, 0xca, 0x09, 0x51, 0xf0, 0xa1, 0x38, 0x33, 0x5e,
  0x06, 0x9f, 0x1d, 0xdc, 0x9f, 0x21, 0x4b, 0xce, 0x45, 0xbb, 0x44, 0x18,
  0xf9, 0xd3, 0xda, 0xf0, 0xc8, 0x9d, 0xab, 0x07, 0xdc, 0x16, 0xb3, 0x5a,
  0x1c, 0xb4, 0xf0, 0xbd, 0xc0, 0x5b, 0xa3, 0x39, 0xf0, 0xbe, 0xa0, 0x24,
  0xf9, 0xa3, 0xdc, 0x64, 0x50, 0xa8, 0x43, 0xa3, 0xc6, 0xfd, 0x5b, 0x25,
  0xcf, 0xc0, 0xbf, 0x21, 0xe8, 0x48, 0xf3, 0xb4, 0x9d, 0xfe, 0x23, 0x3b,
  0x51, 0xaa, 0xc8, 0x9f, 0x32, 0xe7, 0xc0, 0xed, 0xbd, 0x62, 0x65, 0x56,
  0x4d, 0x42, 0xe7, 0xc5, 0x18, 0x26, 0xc9, 0xcd, 0x38, 0x39, 0xb4, 0x09,
  0x9f, 0x5b, 0x49, 0xeb, 0x32, 0xee, 0x2b, 0x48, 0xc3, 0xa0, 0x53, 0x9b,
  0xac, 0xb2, 0xae, 0xd2, 0x2d, 0xbd, 0x98, 0xed, 0x33, 0xcc, 0xd0, 0x04,
  0x39, 0xc6, 0x8e, 0x31, 0x4b, 0xd1, 0xf7, 0xa9, 0xdd, 0x39, 0x05, 0xbb,
  0x33, 0x12, 0xe0, 0xb7, 0x2c, 0xfb, 0x2d, 0xf0, 0x42, 0x18, 0x20, 0xa2,
  0x26, 0xb8, 0x24, 0x57, 0xe5, 0x3e, 0xb8, 0x08, 0x1b, 0x4f, 0x3d, 0xcd,
  0x57, 0xe8, 0x10, 0x1d, 0xac, 0x09, 0xfc, 0xce, 0xd9, 0x46, 0x40, 0xa9,
  0x11, 0x07, 0x9c, 0xfc, 0x2d, 0x35, 0x38, 0xed, 0x32, 0xe4, 0x31, 0xe3,
  0x97, 0x3d, 0xf9, 0xf4, 0xcd, 0x0f, 0x32, 0x02, 0xfa, 0xe3, 0xfa, 0x57,
  0xd7, 0xac, 0x12, 0x98, 0xe2, 0x95, 0xd3, 0xbe, 0xa6, 0x4c, 0x60, 0x30,
  0x3e, 0x2c, 0x2c, 0x9f, 0xfc, 0x0a, 0xa7, 0xd0, 0x9e, 0x5c, 0x13, 0x39,
  0xe1, 0x51, 0x44, 0x02, 0x0c, 0x55, 0xf9, 0xe1, 0x02, 0x0f, 0xab, 0x08,
  0x15, 0x4a, 0xa6, 0x2f, 0xb1, 0xed, 0x54, 0x01, 0x57, 0x51, 0x98, 0x03,
  0x1b, 0xd3, 0xd5, 0x35, 0x50, 0x14, 0xb4, 0x09, 0xad, 0xbe, 0x57, 0x2b,
  0xe8, 0x9f, 0xd3, 0xb2, 0xd0, 0x36, 0xda, 0xea, 0xaa, 0xd0, 0xb4, 0x42,
  0x1f, 0x4c, 0xf4, 0x4a, 0xdc, 0x63, 0x9b, 0x63, 0x1a, 0xef, 0x3b, 0xe5,
  0xd7, 0xe2, 0xa8, 0x05, 0x5e, 0xd5, 0x11, 0x62, 0x33, 0xf3, 0x54, 0xd2,
  0x56, 0xd9, 0xd9, 0xbe, 0xe2, 0x52, 0x9c, 0xd6, 0x5b, 0xf4, 0x3e, 0xef,
  0x5f, 0xb9, 0x3c, 0xa0, 0x0c, 0x5f, 0x55, 0xc8, 0x1f, 0x0b, 0xab, 0xdc,
  0x15, 0x0e, 0x65, 0xb1, 0xdb, 0x46, 0x53, 0x37, 0x3b, 0xcb, 0xf2, 0x9b,
  0x21, 0xca, 0xea, 0xc9, 0x98, 0xd7, 0xcc, 0x31, 0xb5, 0x13, 0xab, 0x5a,
  0xc8, 0xed, 0x5c, 0x0f, 0x0e, 0xa9, 0xb9, 0xb4, 0xd4, 0x9c, 0xf3, 0x4e,
  0xf8, 0xf4, 0xe1, 0x52, 0x14, 0xc8, 0x24, 0xd2, 0xdf, 0xf9, 0x2c, 0xcb,
  0x4a, 0x58, 0xc3, 0x14, 0xf7, 0x54, 0x3a, 0x41, 0xde, 0x98, 0xe1, 0xa9,
  0x54, 0x0f, 0xf9, 0x14, 0x05, 0xae, 0x43, 0xc3, 0xc6, 0x0b, 0xf6, 0x06,
  0x5c, 0xe7, 0xd5, 0xe4, 0x3f, 0xa7, 0xca, 0x1f, 0x23, 0xe0, 0x5d, 0x26,
  0x9a, 0x97, 0xfe, 0xe1, 0xf6, 0xfd, 0xb6, 0x37, 0xfb, 0xa2, 0x48, 0xfd,
  0x26, 0x38, 0x2d, 0xc0, 0x91, 0xb4, 0x92, 0xfe, 0x2e, 0x2a, 0x94, 0x42,
  0x2c, 0xbe, 0x32, 0x52, 0xe1, 0x4b, 0x47, 0xb1, 0xaa, 0xd9, 0x2d, 0x98,
  0xae, 0xed, 0xdf, 0xdc, 0x1c, 0x1c, 0x30, 0xff, 0xdb, 0x3f, 0x41, 0x4e,
  0xe6, 0xa1, 0x49, 0x3f, 0x0d, 0xf9, 0x03, 0x1b, 0x0d, 0x11, 0xf4, 0xdf,
  0xd3, 0xc7, 0x45, 0x55, 0xe4, 0x19, 0xd5, 0x4b, 0xb0, 0xcd, 0x4d, 0x39,
  0xeb, 0xd9, 0x34, 0xec, 0x26, 0x08, 0x9d, 0xa5, 0x89, 0x1a, 0x4f, 0x1c,
  0x91, 0x49, 0xca, 0xd6, 0x35, 0x4f, 0x89, 0x03, 0xb0, 0x34, 0xe1, 0x14,
  0x43, 0x52, 0xd5, 0xf5, 0x27, 0x8f, 0xb1, 0xdb, 0x2f, 0x4d, 0x0e, 0xe9,
  0x48, 0xb5, 0xf7, 0x8e, 0x0d, 0xdd, 0xe3, 0x9a, 0xaf, 0x4a, 0x35, 0x57,
  0xca, 0xc6, 0x18, 0x0e, 0x28, 0xa0, 0xf1, 0xb0, 0xd6, 0xd7, 0xe4, 0x01,
  0x5b, 0x2d, 0x36, 0x1e, 0xae, 0xb5, 0x96, 0xb0, 0x1e, 0xd2, 0x59, 0xf3,
  0xd6, 0xf6, 0xff, 0xc2, 0xb4, 0xc4, 0xca, 0x3e, 0x1c, 0xb8, 0xa6, 0x5a,
  0xce, 0x01, 0xa5, 0x1a, 0x06, 0x54, 0x43, 0x54, 0x58, 0xec, 0xf9, 0xb2,
  0x55, 0x24, 0xf7, 0x51, 0xcf, 0x2e, 0xe5, 0xe6, 0xa2, 0x54, 0x17, 0x42,
  0x51, 0xb2, 0x3c, 0x0c, 0x9b, 0xcf, 0x4a, 0x36, 0xed, 0x37, 0xf8, 0x02,
  0x57, 0x9a, 0xac, 0x05, 0xe4, 0x5d, 0xf0, 0x60, 0x9c, 0x45, 0xf6, 0xf5,
  0x3d, 0x9c, 0x0a, 0x39, 0xa3, 0x45, 0xdf, 0xd8, 0xb8, 0x4a, 0x47, 0xcc,
  0x63, 0xf7, 0x08, 0xf7, 0x42, 0x1b, 0x0a, 0xa0, 0xeb, 0x60, 0xb4, 0xed,
  0x9a, 0x58, 0x3b, 0x3f, 0xee, 0xb1, 0x45, 0x18, 0x52, 0x47, 0xb8, 0x4a,
  0xd1, 0xb7, 0x0a, 0x24, 0xf2, 0xd9, 0x58, 0xf7, 0xf3, 0x1e, 0x97, 0x5d,
  0x2a, 0xfe, 0xa6, 0xe0, 0xc9, 0xd3, 0xab, 0x4d, 0xd1, 0x35, 0xec, 0x11,
  0x23, 0x97, 0xb8, 0xe8, 0xb2, 0xa3, 0xe4, 0x0e, 0x9d, 0x48, 0x55, 0xd8,
  0xf4, 0xa9, 0x2b, 0xab, 0xe2, 0xd4, 0x1f, 0x5d, 0xc9, 0x2d, 0x4b, 0xe1,
  0xdc, 0x26, 0xad, 0x2a, 0xa7, 0x1d, 0xc4, 0x13, 0x05, 0x3b, 0xc9, 0xc6,
  0xf5, 0x61, 0x44, 0x58, 0x0c, 0xeb, 0xa3, 0x4d, 0x46, 0xf4, 0x9f, 0x02,
  0xad, 0xe1, 0x16, 0xac, 0x1b, 0xf4, 0x0e, 0xc2, 0x23, 0xeb, 0xf9, 0xc2,
  0xd9, 0x97, 0x36, 0x18, 0xeb, 0xf6, 0x09, 0x2a, 0xd4, 0xbd, 0x24, 0xcc,
  0xab, 0x00, 0xb8, 0x11, 0xef, 0x29, 0x05, 0x28, 0xf9, 0xb1, 0x4a, 0x4a,
  0x2e, 0x53, 0xb2, 0x58, 0x97, 0xc4, 0x06, 0xb3, 0x3b, 0x06, 0xb4, 0xf8,
  0xe9, 0x3a, 0xe9, 0x4c, 0x9f, 0xf1, 0x5f, 0x9e, 0xfe, 0xec, 0xcd, 0xba,
  0xb4, 0xa5, 0xef, 0xd2, 0x5b, 0x4e, 0xcb, 0xf8, 0xa3, 0xab, 0xb3, 0xa9,
  0x47, 0xd6, 0x5a, 0xe9, 0x9b, 0x97, 0xe7, 0xee, 0x16, 0xc2, 0x3d, 0xe2,
  0xb7, 0x45, 0x3c, 0xf7, 0x48, 0x10, 0xe7, 0xc1, 0xd5, 0x1c, 0xa7, 0xe1,
  0x2c, 0x4f, 0x19, 0xf6, 0x0b, 0xc2, 0x33, 0x4b, 0x1b, 0x55, 0xfc, 0xd9,
  0x19, 0xba, 0x36, 0x5e, 0xb3, 0x5f, 0xe9, 0x5a, 0x56, 0xd9, 0x49, 0xee,
  0x5b, 0x31, 0xd0, 0x3d, 0x3a, 0x1c, 0x49, 0xe3, 0x0c, 0x50, 0x06, 0x52,
  0x55, 0xa8, 0xa6, 0x09, 0x35, 0xca, 0x1e, 0xf0, 0x62, 0xca, 0x27, 0x4a,
  0xad, 0xe5, 0xd0, 0x3e, 0x33, 0xe5, 0x60, 0xfe, 0x25, 0xf7, 0x5c, 0xdf,
  0xcd, 0x07, 0xf9, 0x37, 0x24, 0xf4, 0x29, 0x35, 0x91, 0x21, 0xad, 0xcc,
  0x07, 0xc1, 0x43, 0x3b, 0x16, 0xe6, 0xc6, 0x28, 0xe9, 0x09, 0xbe, 0xe0,
  0xba, 0x30, 0xa1, 0xfe, 0x1b, 0xaa, 0x29, 0x94, 0xd9, 0xb9, 0xe5, 0x08,
  0xd3, 0x97, 0x0c, 0xfe, 0xf7, 0xee, 0x37, 0x97, 0x9b, 0x42, 0x0c, 0xe5,
  0x24, 0xb5, 0xb3, 0x9e, 0xfd, 0xb1, 0xd3, 0xf8, 0x4b, 0xf5, 0x27, 0xea,
  0x07, 0x1a, 0x64, 0x0c, 0x19, 0xaa, 0x60, 0xb4, 0x23, 0xbb, 0x63, 0xaf,
  0xb8, 0x30, 0xf6, 0x18, 0xff, 0x17, 0x15, 0xe2, 0x32, 0xe9, 0xb7, 0xa8,
  0x50, 0xde, 0x27, 0xb0, 0xe8, 0x4f, 0x1f, 0x04, 0x31, 0x12, 0x1a, 0x34,
  0xa7, 0xce, 0xf7, 0xd5, 0x63, 0xe9, 0x00, 0xb4, 0xdb, 0x4d, 0xb6, 0xa2,
  0xec, 0x0b, 0x0f, 0x3d, 0xb3, 0x60, 0x1c, 0xd7, 0xab, 0xc1, 0xc6, 0x18,
  0x1e, 0x2d, 0x2f, 0x5b, 0x28, 0x51, 0x00, 0x5c, 0xb5, 0x0a, 0xb4, 0xd4,
  0x23, 0xd0, 0xc1, 0x59, 0x5a, 0xbc, 0x53, 0xf9, 0xe4, 0xf3, 0x9d, 0x3a,
  0xe5, 0xfc, 0x2c, 0x34, 0xde, 0xa9, 0x52, 0x1e, 0xdf, 0x49, 0x10, 0x51,
  0xe7, 0xbb, 0x2c, 0xb3, 0x4c, 0xa9, 0xc1, 0x03, 0xb6, 0xf2, 0x39, 0xae,
  0xef, 0x33, 0xd4, 0xcd, 0xaa, 0xdf, 0xce, 0x50, 0x56, 0x15, 0xa2, 0xbd,
  0x12, 0x59, 0x10, 0x20, 0x5e, 0x42, 0xe9, 0x03, 0xf5, 0xde, 0x1a, 0xff,
  0x05, 0xdc, 0xdf, 0xf6, 0xeb, 0xc8, 0xf8, 0xe3, 0x2d, 0x1f, 0xa4, 0x57,
  0xc7, 0xb5, 0x29, 0xe7, 0x1e, 0x31, 0x30, 0x49, 0xd2, 0xe6, 0xe1, 0xf7,
  0xf7, 0xbb, 0x42, 0xf8, 0x21, 0x2e, 0x24, 0x3a, 0x37, 0xed, 0x47, 0x04,
  0xca, 0xc5, 0xcf, 0xaa, 0x33, 0xae, 0x94, 0x27, 0x39, 0x3a, 0x52, 0x10,
  0x32, 0xca, 0xdf, 0x4a, 0x05, 0xb4, 0xd6, 0xf8, 0xaa, 0x2b, 0xdd, 0x99,
  0x9b, 0x36, 0xd3, 0x35, 0xa6, 0xc6, 0xce, 0x10, 0xce, 0x3a, 0xe5, 0xc5,
  0x3a, 0xcf, 0x2a, 0xf0, 0x50, 0xc9, 0x16, 0x26, 0x4e, 0x0b, 0x05, 0x4a,
  0xea, 0x59, 0xad, 0x02, 0xf4, 0x55, 0xaf, 0xf8, 0x52, 0xca, 0xde, 0x40,
  0x58, 0xc3, 0x2e, 0x4f, 0x16, 0xbf, 0xdc, 0x42, 0xaa, 0xf3, 0x1e, 0xb2,
  0x24, 0x07, 0x42, 0xdd, 0x34, 0x9d, 0x34, 0xec, 0x49, 0x5e, 0x1d, 0xf7,
  0xb0, 0x3f, 0x1e, 0x1f, 0x1d, 0x10, 0x3a, 0xf4, 0xe3, 0xcc, 0xb0, 0xb0,
  0xd7, 0x5b, 0xa5, 0xe2, 0x36, 0x2c, 0xc9, 0xc9, 0x34, 0xfe, 0xff, 0xc8,
  0x08, 0x16, 0x2a, 0xb5, 0xc6, 0x23, 0xd3, 0x1c, 0x20, 0x9a, 0x40, 0x39,
  0xb2, 0xea, 0xa2, 0x40, 0x45, 0x5c, 0xc0, 0x3f, 0xab, 0xd9, 0xb6, 0x9f,
  0xe9, 0x3f, 0xf4, 0xc2, 0xad, 0x3c, 0xa3, 0xe0, 0x62, 0xde, 0xe5, 0xbe,
  0xad, 0x99, 0x19, 0x45, 0x03, 0x4d, 0x58, 0x2a, 0x38, 0x9c, 0x04, 0x48,
  0xe8, 0xcc, 0x01, 0x4f, 0xce, 0xac, 0x10, 0xd0, 0xc4, 0x2d, 0x24, 0xca,
  0x3e, 0x2e, 0x34, 0x41, 0xa7, 0x25, 0xf4, 0x59, 0x57, 0x57, 0xfd, 0xfb,
  0x2f, 0x02, 0x07, 0xa6, 0xc5, 0x97, 0xdd, 0x02, 0xe3, 0xdb, 0x2f, 0x9a,
  0x17, 0xab, 0x1b, 0x2a, 0x31, 0xac, 0xe3, 0xb4, 0x99, 0x2b, 0xe5, 0x15,
  0xf6, 0x9e, 0x39, 0x61, 0xce, 0xad, 0xdc, 0x21, 0x12, 0xf1, 0x4c, 0xed,
  0xc8, 0xc0, 0x31, 0x1a, 0xae, 0xea, 0xc5, 0x0f, 0x2d, 0xc5, 0x95, 0xcb,
  0x5a, 0x2f, 0xd7, 0xe0, 0x58, 0x26, 0x29, 0x5f, 0xeb, 0xee, 0x9e, 0x5c,
  0xdc, 0x24, 0xf9, 0xa7, 0x49, 0x4f, 0xec, 0x37, 0x54, 0xdb, 0xc8, 0xe2,
  0xf3, 0xbf, 0x51, 0x4f, 0x33, 0x5d, 0x09, 0x22, 0xd8, 0xf4, 0x95, 0x5b,
  0xe5, 0xd5, 0xf2, 0xfc, 0x08, 0x03, 0x94, 0xe8, 0x99, 0x35, 0xf0, 0x15,
  0x18, 0xe4, 0x30, 0xda, 0x01, 0x0d, 0x1a, 0x14, 0xce, 0xf1, 0x13, 0xe6,
  0x24, 0x08, 0xfb, 0xd8, 0x99, 0xc9, 0x56, 0x11, 0x22, 0xa9, 0x20, 0x45,
  0xef, 0x2f, 0x05, 0xd5, 0x11, 0xc5, 0xab, 0x45, 0x3e, 0xfa, 0xd3, 0xd3,
  0x5a, 0xe3, 0x1e, 0xd1, 0xb2, 0x4a, 0xce, 0xba, 0x34, 0x98, 0xf8, 0xd8,
  0xbe, 0x1b, 0xec, 0xc1, 0x9a, 0x3c, 0xae, 0x47, 0xc2, 0x56, 0x2f, 0xe4,
  0xae, 0xa8, 0x0d, 0x3e, 0xc5, 0x5c, 0x5e, 0x1c, 0xed, 0x19, 0xf9, 0x09,
  0x9c, 0x21, 0x16, 0xd7, 0x44, 0xd2, 0xf5, 0xcf, 0x4d, 0x9a, 0x3e, 0xb0,
  0x44, 0x49, 0x0e, 0x45, 0xbe, 0xb7, 0xde, 0x56, 0x45, 0x40, 0xc2, 0xf0,
  0x20, 0xda, 0x22, 0x24, 0x8f, 0x4d, 0xec, 0x4b, 0x28, 0x08, 0x56, 0x45,
  0x46, 0x9f, 0x03, 0x0f, 0xdc, 0x1e, 0x18, 0xcb, 0xb2, 0xad, 0x5a, 0xbd,
  0x35, 0xf9, 0x9b, 0x99, 0x0b, 0xfc, 0x1f, 0x11, 0x45, 0xe5, 0x51, 0xed,
  0xc9, 0xf0, 0x35, 0xb5, 0xfd, 0x9c, 0xff, 0xf7, 0x44, 0xf0, 0xac, 0x9d,
  0x44, 0x46, 0xc2, 0xd7, 0xd8, 0x52, 0x95, 0xf8, 0x06, 0x19, 0x57, 0x28,
  0xa5, 0xcc, 0x35, 0x48, 0x4e, 0xba, 0x2e, 0x38, 0x32, 0xc2, 0x2f, 0xcf,
  0x46, 0xc3, 0x40, 0x32, 0x93, 0x10, 0xd9, 0xec, 0xb9, 0xe0, 0xc2, 0xc8,
  0xdf, 0x5d, 0xc2, 0x0b, 0xcf, 0x60, 0xf4, 0x97, 0xfc, 0xb4, 0x2d, 0x9d,
  0xa4, 0x2b, 0x3d, 0xe6, 0xfa, 0x1e, 0xd0, 0x0a, 0xf5, 0x9b, 0x18, 0x15,
  0x02, 0x47, 0x40, 0x35, 0x50, 0x0f, 0xe2, 0xf7, 0x05, 0xe1, 0xfb, 0xba,
  0x08, 0x0b, 0x45, 0xf1, 0x0b, 0xe3, 0x60, 0xbb, 0xf3, 0x17, 0x11, 0xf3,
  0x5a, 0x57, 0x22, 0xde, 0x4e, 0xa3, 0xac, 0xf2, 0x33, 0xd3, 0x00, 0xe1,
  0x2f, 0x9e, 0xbc, 0xe4, 0x11, 0x52, 0x1c, 0xdb, 0x9c, 0xc4, 0x3d, 0x04,
  0x9f, 0xeb, 0xc9, 0x9f, 0x96, 0x31, 0x3a, 0x0c, 0xcc, 0x14, 0xf8, 0x19,
  0x19, 0x59, 0x41, 0x4e, 0xef, 0xc9, 0x2f, 0xc8, 0x40, 0x17, 0xf3, 0x19,
  0x54, 0x4a, 0xab, 0xd4, 0x09, 0xd0, 0xd7, 0x91, 0xad, 0x9b, 0x00, 0xce,
  0x1d, 0xa0, 0x0c, 0x1f, 0xb5, 0x93, 0x21, 0x8d, 0x43, 0x0d, 0x94, 0x27,
  0x45, 0xb9, 0xd4, 0x8f, 0xe5, 0xb7, 0x4e, 0x1e, 0xef, 0x33, 0xfd, 0xb1,
  0xe6, 0xc8, 0x1d, 0x54, 0x1f, 0xc2, 0x00, 0xc8, 0xf0, 0x00, 0xdc, 0xcf,
  0x37, 0x28, 0xf9, 0xb7, 0x42, 0x56, 0x67, 0x47, 0xee, 0xa5, 0xfe, 0x54,
  0x34, 0xb5, 0xc6, 0x25, 0x32, 0xae, 0xcf, 0xdf, 0xca, 0xfd, 0x18, 0x20,
  0x23, 0x4a, 0xdb, 0xad, 0x38, 0x2d, 0x2b, 0xaa, 0x44, 0x2c, 0xda, 0xde,
  0x5a, 0xfa, 0xf6, 0xd6, 0x59, 0xf7, 0x28, 0xbe, 0x03, 0x9c, 0x30, 0xf1,
  0xa9, 0x0b, 0x2f, 0xa6, 0xb8, 0xe3, 0xe0, 0xd4, 0x0b, 0x21, 0xe3, 0xfb,
  0x3b, 0x4c, 0x47, 0x36, 0xfc, 0xbe, 0xe7, 0x2e, 0x9d, 0x13, 0x20, 0xff,
  0x59, 0xa9, 0xd7, 0xe4, 0xeb, 0xb5, 0xc0, 0xd7, 0x17, 0x9b, 0xe9, 0x9c,
  0x16, 0xde, 0xfb, 0x38, 0xea, 0x31, 0xe8, 0xd1, 0x4c, 0x48, 0x26, 0x17,
  0x22, 0x45, 0x11, 0x9e, 0x34, 0xce, 0xf1, 0xf0, 0x08, 0x44, 0x3e, 0xad,
  0xd8, 0x9e, 0x14, 0xa3, 0xd6, 0xe4, 0xe0, 0xa4, 0xe0, 0x00, 0xe9, 0xe8,
  0xa4, 0x37, 0xb8, 0xfc, 0x02, 0x36, 0x21, 0x47, 0xda, 0xaf, 0x08, 0x25,
  0xf3, 0xfc, 0xdb, 0xa9, 0x56, 0xc3, 0xcd, 0x1a, 0xa7, 0xe6, 0xc4, 0x01,
  0x3a, 0x54, 0xd9, 0x13, 0xf9, 0xc7, 0x3e, 0xe6, 0x4e, 0xbd, 0x33, 0xf5,
  0xb4, 0xca, 0xb3, 0x4c, 0xb8, 0xd1, 0x9b, 0xce, 0xbd, 0xee, 0xdd, 0x46,
  0x51, 0xca, 0x0d, 0xdc, 0x5e, 0x05, 0xf4, 0x2e, 0x27, 0xb9, 0xf5, 0x06,
  0x05, 0x98, 0x0a, 0x3f, 0x41, 0x57, 0xa7, 0xd9, 0xcc, 0xc8, 0x2f, 0x09,
  0xc5, 0xbc, 0xf9, 0x9d, 0xb9, 0x11, 0x25, 0x05, 0xbb, 0xde, 0xa3, 0xd1,
  0xb9, 0x30, 0x1d, 0x01, 0x95, 0xe4, 0xf4, 0x0b, 0x1d, 0x4c, 0x48, 0xfd,
  0xad, 0x4d, 0xca, 0xe3, 0xb2, 0xe8, 0xfc, 0xa4, 0x4e, 0xe4, 0xcf, 0x16,
  0xc0, 0x13, 0x4a, 0x3b, 0x04, 0x19, 0x56, 0x25, 0x0e, 0x4e, 0x24, 0x9b,
  0x32, 0xb2, 0x44, 0xcc, 0x38, 0xa0, 0x59, 0x51, 0x2c, 0x2f, 0xbe, 0x07,
  0x54, 0xf1, 0xeb, 0x3c, 0x5c, 0xf6, 0xa6, 0x20, 0xf3, 0x28, 0xa2, 0xe8,
  0x1e, 0x9d, 0xf5, 0xd0, 0x54, 0x47, 0x08, 0x37, 0xda, 0xaf, 0xd5, 0xee,
  0xb9, 0xad, 0xdb, 0xe4, 0x0a, 0xfd, 0xd6, 0xcf, 0xc2, 0x38, 0x0f, 0x47,
  0x33, 0x33, 0x52, 0x39, 0xe9, 0x0b, 0xea, 0x27, 0xc9, 0x55, 0xb2, 0xa6,
  0xdc, 0x1a, 0x60, 0x05, 0xe1, 0x19, 0x3c, 0x62, 0xdc, 0xc4, 0xd5, 0x38,
  0x4a, 0xb8, 0xdc, 0xee, 0xed, 0xa0, 0x49, 0x36, 0x55, 0x18, 0x4a, 0x41,
  0x9e, 0xde, 0xf9, 0x47, 0xa9, 0xcd, 0xbc, 0x3e, 0x9d, 0xa6, 0x5b, 0x4c,
  0x50, 0x33, 0x9f, 0xd7, 0x19, 0xbf, 0xd3, 0x11, 0xef, 0x31, 0x1d, 0xb6,
  0xde, 0xab, 0x18, 0x58, 0x59, 0xe1, 0x2f, 0x3c, 0x21, 0x53, 0x36, 0x98,
  0x3b, 0x12, 0x91, 0xa6, 0x3c, 0xf9, 0xb4, 0x51, 0xc6, 0xcb, 0xbf, 0xc7,
  0xbe, 0xd0, 0x23, 0xec, 0xac, 0xeb, 0x38, 0x42, 0xbc, 0x04, 0xb3, 0x46,
  0xa3, 0xff, 0x1b, 0x39, 0xed, 0x2a, 0x33, 0x30, 0x56, 0x32, 0xaf, 0xd7,
  0xa3, 0x40, 0xf0, 0x52, 0x29, 0x8f, 0xa0, 0xea, 0x31, 0x27, 0x47, 0x00,
  0xe4, 0x1a, 0x53, 0x1d, 0x39, 0xed, 0xbe, 0xc8, 0x22, 0x21, 0x25, 0x4e,
  0x2c, 0x3f, 0xc9, 0xa6, 0x29, 0xe1, 0x44, 0x4a, 0xd2, 0x38, 0xed, 0x27,
  0xa2, 0x19, 0x8b, 0x1e, 0xfb, 0xc7, 0x14, 0xc8, 0x1f, 0xe6, 0x8b, 0xc0,
  0xa1, 0xf4, 0xf0, 0x2e, 0xcf, 0x99, 0x1e, 0xc7, 0x0f, 0x35, 0x52, 0xe6,
  0x1e, 0xfa, 0x98, 0x11, 0x41, 0x26, 0xab, 0x4d, 0xd2, 0xb0, 0x96, 0x09,
  0x55, 0xab, 0x4d, 0x26, 0x47, 0xd6, 0x14, 0x92, 0xff, 0xec, 0x03, 0xa1,
  0xfc, 0x55, 0x16, 0x32, 0x50, 0x3b, 0xd2, 0x09, 0x22, 0x0a, 0xc4, 0xa8,
  0x16, 0x21, 0x36, 0xae, 0xb7, 0xa3, 0xe7, 0x39, 0xc1, 0x0e, 0xfc, 0x47,
  0x4e, 0x05, 0x24, 0x0e, 0xaf, 0xd9, 0x3a, 0xd4, 0x46, 0x57, 0x14, 0x2c,
  0x03, 0xc3, 0xdf, 0x56, 0xe1, 0xb9, 0x58, 0x23, 0xc0, 0x5b, 0xa6, 0xee,
  0xd1, 0xfa, 0xbe, 0xa1, 0xf1, 0xe3, 0x9a, 0xac, 0x36, 0xff, 0x45, 0x66,
  0xe0, 0x59, 0xb3, 0xe5, 0xbe, 0xa4, 0x4c, 0x09, 0xc9, 0x26, 0x08, 0x10,
  0x3a, 0xfa, 0x01, 0x0a, 0xf7, 0xf9, 0x44, 0xc8, 0x57, 0xf1, 0x5e, 0xc7,
  0x43, 0x37, 0xf1, 0xa0, 0x09, 0x07, 0xe7, 0xff, 0xaa, 0xc6, 0xce, 0x41,
  0x16, 0xa1, 0x9e, 0x06, 0x40, 0x60, 0x37, 0xc3, 0xe3, 0x9c, 0x34, 0xeb,
  0xd6, 0xe7, 0xcd, 0xb3, 0xc9, 0xad, 0xb3, 0x2e, 0xd5, 0xd7, 0xc3, 0x54,
  0xf0, 0xe7, 0xfc, 0xf6, 0x9d, 0xa0, 0x61, 0x50, 0xb8, 0xc9, 0x5c, 0x01,
  0x3f, 0xd4, 0x5a, 0xf3, 0x16, 0x21, 0x28, 0x56, 0xac, 0xc3, 0x18, 0xcd,
  0xef, 0xd9, 0x27, 0xe7, 0x56, 0x24, 0xbb, 0x28, 0xd6, 0xaa, 0x5e, 0x09,
  0x9e, 0x58, 0x15, 0x60, 0x1f, 0x22, 0xf7, 0x13, 0xc1, 0xcc, 0x39, 0xc9,
  0x60, 0xb2, 0xff, 0x29, 0xbb, 0x0e, 0x2e, 0xc5, 0x1e, 0xdb, 0xff, 0xff,
  0x04, 0x00, 0x00, 0x00, 0x00, 0x02, 0x00, 0x00, 0x00, 0x00, 0x00, 0x00,
  0x00, 0x00, 0x00, 0x00, 0xf2, 0xff, 0xff, 0xff, 0xf2, 0xff, 0xff, 0xff,
  0xf8, 0xff, 0xff, 0xff, 0xfe, 0xff, 0xff, 0xff, 0x00, 0x00, 0x00, 0x00,
  0x00, 0x00, 0x00, 0x00, 0x00, 0x00, 0x00, 0x00, 0x00, 0x00, 0x00, 0x00,
  0x00, 0x00, 0x00, 0x00, 0x00, 0x00, 0x00, 0x00, 0xf6, 0xff, 0xff, 0xff,
  0x00, 0x00, 0x00, 0x00, 0xff, 0xff, 0xff, 0xff, 0xfb, 0xff, 0xff, 0xff,
  0xfe, 0xff, 0xff, 0xff, 0x00, 0x00, 0x00, 0x00, 0xef, 0xff, 0xff, 0xff,
  0xf1, 0xff, 0xff, 0xff, 0xf9, 0xff, 0xff, 0xff, 0xf1, 0xff, 0xff, 0xff,
  0x00, 0x00, 0x00, 0x00, 0x00, 0x00, 0x00, 0x00, 0xf9, 0xff, 0xff, 0xff,
  0xf7, 0xff, 0xff, 0xff, 0x00, 0x00, 0x00, 0x00, 0x00, 0x00, 0x00, 0x00,
  0xfd, 0xff, 0xff, 0xff, 0x00, 0x00, 0x00, 0x00, 0xf1, 0xff, 0xff, 0xff,
  0x00, 0x00, 0x00, 0x00, 0x00, 0x00, 0x00, 0x00, 0xf1, 0xff, 0xff, 0xff,
  0xfd, 0xff, 0xff, 0xff, 0x00, 0x00, 0x00, 0x00, 0xf3, 0xff, 0xff, 0xff,
  0x00, 0x00, 0x00, 0x00, 0xfc, 0xff, 0xff, 0xff, 0x00, 0x00, 0x00, 0x00,
  0xfb, 0xff, 0xff, 0xff, 0x08, 0x00, 0x00, 0x00, 0x00, 0x00, 0x00, 0x00,
  0xf4, 0xff, 0xff, 0xff, 0xfc, 0xff, 0xff, 0xff, 0x00, 0x00, 0x00, 0x00,
  0x30, 0x00, 0x00, 0x00, 0xe8, 0xff, 0xff, 0xff, 0x00, 0x00, 0x00, 0x00,
  0x00, 0x00, 0x00, 0x00, 0xf4, 0xff, 0xff, 0xff, 0xfb, 0xff, 0xff, 0xff,
  0xd7, 0xff, 0xff, 0xff, 0xf7, 0xff, 0xff, 0xff, 0x00, 0x00, 0x00, 0x00,
  0xff, 0xff, 0xff, 0xff, 0xfc, 0xfe, 0xff, 0xff, 0x00, 0x00, 0x00, 0x00,
  0xfd, 0xff, 0xff, 0xff, 0xfa, 0xff, 0xff, 0xff, 0xfa, 0xff, 0xff, 0xff,
  0x00, 0x00, 0x00, 0x00, 0x0a, 0x00, 0x00, 0x00, 0xf8, 0xff, 0xff, 0xff,
  0xe4, 0xff, 0xff, 0xff, 0xfa, 0xff, 0xff, 0xff, 0x00, 0x00, 0x00, 0x00,
  0xf4, 0xff, 0xff, 0xff, 0xfc, 0xff, 0xff, 0xff, 0xfa, 0xff, 0xff, 0xff,
  0xf5, 0xff, 0xff, 0xff, 0x00, 0x00, 0x00, 0x00, 0xef, 0xff, 0xff, 0xff,
  0xfe, 0xff, 0xff, 0xff, 0x00, 0x00, 0x00, 0x00, 0xf9, 0xff, 0xff, 0xff,
  0x00, 0x00, 0x00, 0x00, 0x00, 0x00, 0x00, 0x00, 0xfd, 0xff, 0xff, 0xff,
  0x00, 0x00, 0x00, 0x00, 0xec, 0xff, 0xff, 0xff, 0x00, 0x00, 0x00, 0x00,
  0xfb, 0xff, 0xff, 0xff, 0x06, 0x00, 0x00, 0x00, 0x00, 0x00, 0x00, 0x00,
  0x00, 0x00, 0x00, 0x00, 0x0b, 0x00, 0x00, 0x00, 0x00, 0x00, 0x00, 0x00,
  0xf9, 0xff, 0xff, 0xff, 0xf4, 0xff, 0xff, 0xff, 0x00, 0x00, 0x00, 0x00,
  0x00, 0x00, 0x00, 0x00, 0xfe, 0xff, 0xff, 0xff, 0xfc, 0xff, 0xff, 0xff,
  0xfb, 0xff, 0xff, 0xff, 0x00, 0x00, 0x00, 0x00, 0xf0, 0xff, 0xff, 0xff,
  0xf9, 0xff, 0xff, 0xff, 0xfa, 0xff, 0xff, 0xff, 0x00, 0x00, 0x00, 0x00,
  0xec, 0xff, 0xff, 0xff, 0xf8, 0xff, 0xff, 0xff, 0x18, 0x00, 0x00, 0x00,
  0xf6, 0xff, 0xff, 0xff, 0xe9, 0xff, 0xff, 0xff, 0xfc, 0xff, 0xff, 0xff,
  0xfd, 0xff, 0xff, 0xff, 0xfb, 0xff, 0xff, 0xff, 0xf8, 0xff, 0xff, 0xff,
  0x43, 0x00, 0x00, 0x00, 0x00, 0x00, 0x00, 0x00, 0xf6, 0xff, 0xff, 0xff,
  0xf2, 0xff, 0xff, 0xff, 0xf4, 0xff, 0xff, 0xff, 0xfe, 0xff, 0xff, 0xff,
  0xf3, 0xff, 0xff, 0xff, 0xf6, 0xff, 0xff, 0xff, 0xf5, 0xff, 0xff, 0xff,
  0xfa, 0xff, 0xff, 0xff, 0xea, 0xff, 0xff, 0xff, 0xf5, 0xff, 0xff, 0xff,
  0x00, 0x00, 0x00, 0x00, 0xf0, 0xff, 0xff, 0xff, 0x00, 0x00, 0x00, 0x00,
  0xf0, 0xff, 0xff, 0xff, 0xef, 0xff, 0xff, 0xff, 0x00, 0x00, 0x00, 0x00,
  0x00, 0x00, 0x00, 0x00, 0x2a, 0xdd, 0xff, 0xff, 0x04, 0x00, 0x00, 0x00,
  0x00, 0x20, 0x00, 0x00, 0xf5, 0xb0, 0x40, 0x15, 0x1f, 0x32, 0x47, 0xd1,
  0xcb, 0x0c, 0x53, 0x46, 0xcd, 0x47, 0x1a, 0x0b, 0x33, 0x38, 0xe0, 0xca,
  0x07, 0xf6, 0xd8, 0xb4, 0x33, 0x46, 0xad, 0xc2, 0x03, 0x14, 0x50, 0x13,
  0xb0, 0x1f, 0x1b, 0x11, 0x0a, 0xb6, 0x0a, 0x4e, 0xd7, 0x20, 0x4d, 0x32,
  0x43, 0x40, 0xf4, 0x08, 0xd1, 0x3d, 0x4e, 0x39, 0x1b, 0x0a, 0xc5, 0x3c,
  0xc0, 0x47, 0xa0, 0x26, 0xf3, 0xd4, 0x07, 0x3d, 0xbb, 0x07, 0xce, 0xb6,
  0xe3, 0x41, 0xb3, 0xe5, 0x4e, 0xf9, 0xa6, 0xac, 0x3d, 0x05, 0x0f, 0xfb,
  0xc3, 0x06, 0xd7, 0xdd, 0x12, 0x09, 0x15, 0xc3, 0x25, 0xb7, 0xdc, 0x41,
  0x31, 0x14, 0xcf, 0x0c, 0xce, 0x10, 0x02, 0xf9, 0x03, 0xe3, 0x44, 0x1d,
  0x1e, 0xb2, 0x1b, 0x07, 0x1b, 0xd8, 0x0e, 0xde, 0xdb, 0xef, 0xed, 0x0b,
  0xd0, 0x44, 0xb5, 0xd5, 0x0d, 0xfc, 0xe6, 0x54, 0xe1, 0x26, 0x56, 0x11,
  0xf0, 0x1e, 0x3f, 0x04, 0x26, 0x03, 0xd6, 0xee, 0xab, 0x22, 0xdb, 0xe3,
  0xe2, 0xc1, 0xf4, 0xe4, 0xc8, 0xac, 0x3c, 0x57, 0xee, 0xef, 0xea, 0xee,
  0x00, 0xae, 0xf4, 0x1e, 0xc0, 0xee, 0xdb, 0x10, 0x42, 0x05, 0xf7, 0x0e,
  0x0e, 0x3a, 0xdc, 0x54, 0xdd, 0xbf, 0x33, 0xec, 0xb3, 0xf4, 0xc5, 0x4e,
  0x4a, 0xe2, 0x1d, 0xec, 0x39, 0x43, 0x40, 0xc5, 0xad, 0xf0, 0xc3, 0xc3,
  0x26, 0xb0, 0xf1, 0x3f, 0xb4, 0xea, 0x32, 0x14, 0xab, 0x3a, 0x0c, 0x0c,
  0xd6, 0xc6, 0xd8, 0x01, 0xe7, 0x53, 0xf6, 0xe2, 0x06, 0xca, 0xcd, 0xe3,
  0xc7, 0xbe, 0xb5, 0xc6, 0x32, 0xe4, 0x10, 0x30, 0xc0, 0xa8, 0x30, 0x12,
  0x20, 0x55, 0xb5, 0xb9, 0x44, 0xc2, 0xb0, 0x34, 0xf7, 0x1a, 0xe7, 0xcf,
  0x2f, 0xe2, 0xda, 0xe2, 0xd8, 0x36, 0xad, 0x0b, 0xfd, 0xa8, 0x3c, 0xdd,
  0xfe, 0xf8, 0x48, 0xa6, 0xee, 0x08, 0x30, 0xe1, 0x58, 0xe1, 0x32, 0x24,
  0x29, 0xeb, 0xc8, 0x40, 0xd7, 0x1c, 0xfe, 0xe7, 0xda, 0x01, 0xcf, 0xbc,
  0xd7, 0x5a, 0x34, 0x3e, 0xd6, 0xaa, 0xda, 0xb7, 0xc3, 0x06, 0x4e, 0xaf,
  0x21, 0xa6, 0xfa, 0xaf, 0xd1, 0x2e, 0xd4, 0xfd, 0xef, 0xcc, 0x09, 0xbf,
  0xeb, 0xb9, 0x48, 0x3d, 0xf1, 0x3f, 0xae, 0x49, 0xfc, 0x55, 0xb1, 0xe3,
  0xd6, 0x22, 0x58, 0xed, 0x3e, 0x53, 0x51, 0xba, 0x3d, 0x47, 0xad, 0x07,
  0x42, 0xf4, 0xe8, 0xc8, 0x0c, 0xaf, 0x13, 0xcd, 0xda, 0xde, 0x04, 0xe8,
  0x2d, 0xbb, 0x00, 0x46, 0x3e, 0xcc, 0x4c, 0x38, 0xcf, 0x53, 0xb1, 0x30,
  0x3f, 0x28, 0xb0, 0xd9, 0x54, 0xb7, 0xff, 0xe7, 0x08, 0x10, 0xd2, 0x10,
  0xc2, 0x17, 0x99, 0x14, 0xd3, 0xb7, 0x32, 0xd1, 0x12, 0xa7, 0xed, 0x21,
  0x28, 0x43, 0xd7, 0xe2, 0x4f, 0xb1, 0x46, 0xe5, 0xdf, 0xad, 0x07, 0x25,
  0x28, 0x29, 0x2e, 0x00, 0x1e, 0x4b, 0xaf, 0xa2, 0xc4, 0xad, 0xdd, 0xe1,
  0x07, 0xd1, 0x4b, 0xa7, 0xed, 0xfc, 0x1e, 0x2c, 0xc9, 0xb1, 0x16, 0xd8,
  0x05, 0xd0, 0xc1, 0xa6, 0x33, 0xcf, 0xaa, 0x2e, 0xb1, 0xf3, 0x02, 0x35,
  0xef, 0x4b, 0x4a, 0x48, 0x07, 0xb5, 0x41, 0x43, 0xff, 0xb4, 0x47, 0xd6,
  0xa8, 0xe2, 0x32, 0x1d, 0x36, 0xe7, 0xd6, 0xeb, 0xbf, 0xdf, 0x06, 0xac,
  0xf4, 0xa9, 0xab, 0x40, 0xc9, 0x41, 0xd6, 0xaa, 0x16, 0x4e, 0xb1, 0xdf,
  0x51, 0xb1, 0x2f, 0xde, 0x3f, 0xf0, 0x1c, 0xc1, 0xcd, 0x3d, 0xc4, 0xc0,
  0x1f, 0x29, 0x14, 0xeb, 0x2e, 0xbe, 0xe2, 0x0d, 0x3e, 0x08, 0x41, 0xe1,
  0xc1, 0x3a, 0x28, 0xf3, 0xf9, 0x32, 0xe7, 0xea, 0xdd, 0x1b, 0xe5, 0xbe,
  0xfa, 0x33, 0x9e, 0x4f, 0x49, 0xb6, 0x39, 0x9f, 0xfc, 0xc6, 0xdf, 0xc2,
  0x3b, 0x2a, 0x00, 0xf5, 0xda, 0xce, 0xdb, 0xf9, 0x1d, 0xc1, 0xb2, 0x3d,
  0xf0, 0x38, 0x22, 0xbd, 0xef, 0xd7, 0xb7, 0x2f, 0x59, 0x55, 0xd3, 0x01,
  0xfc, 0x0e, 0x26, 0xee, 0x1a, 0xc0, 0xc8, 0x4f, 0xaf, 0xd5, 0x3a, 0xde,
  0x38, 0x0d, 0xaf, 0xdc, 0xe0, 0xea, 0x25, 0xee, 0x05, 0xcb, 0x08, 0x42,
  0x18, 0xb3, 0xb3, 0x45, 0xca, 0xad, 0xb2, 0x4a, 0x07, 0xf4, 0x2a, 0xea,
  0x29, 0xfb, 0xc8, 0xbd, 0xc5, 0xcf, 0x41, 0xa5, 0x0e, 0x55, 0xff, 0xbd,
  0xb1, 0x0e, 0xad, 0x4a, 0xdd, 0xc5, 0x20, 0xd5, 0xb1, 0x51, 0xfa, 0xfc,
  0xae, 0xd1, 0x3f, 0x44, 0xd6, 0x0e, 0x4d, 0x48, 0xf8, 0x0f, 0xec, 0x22,
  0x2e, 0xcd, 0xb8, 0x2d, 0x17, 0x45, 0x12, 0xbe, 0x1c, 0x22, 0xe5, 0x30,
  0x54, 0x0e, 0x10, 0x3f, 0xf5, 0xe1, 0xf3, 0x3b, 0x61, 0xe9, 0xda, 0xf8,
  0x07, 0x1a, 0x2a, 0xaf, 0x44, 0xf2, 0x07, 0xf8, 0xfd, 0x0a, 0x27, 0x18,
  0x09, 0x2e, 0xbf, 0xd0, 0x42, 0x1b, 0xfb, 0x23, 0x31, 0xdf, 0x38, 0xc9,
  0xff, 0x31, 0x15, 0xcc, 0xbc, 0x04, 0x41, 0xb4, 0x3d, 0xc3, 0xb1, 0xc5,
  0xfd, 0xb6, 0xf9, 0x4b, 0x42, 0xf0, 0x2e, 0xc8, 0xbc, 0xc7, 0xc1, 0x18,
  0x0d, 0xb4, 0x4c, 0x0f, 0x4c, 0xec, 0x50, 0xcd, 0xcb, 0x27, 0xf3, 0x23,
  0xbd, 0xe3, 0x36, 0xb9, 0x48, 0xf2, 0x35, 0x4a, 0xc1, 0x12, 0xf3, 0xe2,
  0xca, 0xa7, 0x2b, 0x3d, 0x0e, 0xd0, 0x1e, 0x32, 0xd8, 0xba, 0x26, 0xd0,
  0xe3, 0xdb, 0x41, 0x3a, 0xe7, 0x17, 0x17, 0xc5, 0xe8, 0xf7, 0xeb, 0x19,
  0x47, 0xbb, 0x11, 0x0e, 0x48, 0xad, 0xf1, 0xe2, 0xb6, 0xee, 0xb7, 0xc6,
  0x28, 0x10, 0x3d, 0x12, 0xe6, 0x22, 0xe2, 0xf1, 0x25, 0xf3, 0xbb, 0xbe,
  0x30, 0x05, 0xa7, 0xea, 0x1d, 0xa4, 0x16, 0xf7, 0xe5, 0xae, 0xd4, 0x2a,
  0xe9, 0x32, 0xb0, 0x15, 0xf8, 0x05, 0x06, 0x3d, 0xfc, 0xaa, 0xb0, 0x04,
  0xf2, 0xf8, 0x39, 0x23, 0x2e, 0x35, 0x2e, 0xb1, 0xb1, 0x3c, 0x42, 0xbb,
  0xdc, 0x20, 0x57, 0x12, 0x2c, 0x2c, 0x47, 0x04, 0xb3, 0xd0, 0xcb, 0xe1,
  0xaf, 0x2a, 0x41, 0xcc, 0xe5, 0x4e, 0x53, 0xc2, 0x33, 0x30, 0xee, 0x0a,
  0x1d, 0xe5, 0xdc, 0xc9, 0x4e, 0x10, 0x21, 0x42, 0xb1, 0xbd, 0x32, 0x2b,
  0x3e, 0x29, 0x59, 0xbb, 0xcf, 0x11, 0xad, 0xfc, 0xb0, 0x4c, 0xc7, 0x34,
  0x47, 0x3e, 0xc6, 0x19, 0xd3, 0xbb, 0x32, 0xc7, 0x38, 0x1c, 0x15, 0xfc,
  0x55, 0xf2, 0xba, 0x38, 0xcf, 0x13, 0x33, 0xa4, 0x41, 0x1f, 0xe1, 0xcd,
  0x31, 0xc8, 0xb5, 0x4a, 0xb0, 0xdc, 0x31, 0xdd, 0x50, 0x25, 0xc9, 0xe1,
  0x0f, 0x29, 0x51, 0xb7, 0x15, 0x09, 0x4e, 0x27, 0xef, 0x0d, 0x3e, 0x11,
  0x03, 0xf1, 0x1d, 0xd1, 0x24, 0x39, 0x4e, 0x0f, 0x04, 0x4c, 0xf5, 0x19,
  0x2e, 0x18, 0xf2, 0xb9, 0x1a, 0x1a, 0xd5, 0x59, 0xd9, 0x4a, 0xcc, 0x49,
  0x3c, 0x06, 0xe1, 0xc2, 0xc5, 0xc3, 0x37, 0xdd, 0x54, 0xf4, 0x58, 0xc5,
  0xcc, 0xb8, 0xbd, 0xc4, 0x58, 0x54, 0x1f, 0xd4, 0xa6, 0x20, 0xd1, 0xc9,
  0x1d, 0xd9, 0xeb, 0xfa, 0xf7, 0xf8, 0x36, 0xc7, 0x46, 0xd4, 0x1f, 0x15,
  0xc8, 0xe4, 0x09, 0xca, 0x0f, 0x56, 0x4a, 0xba, 0xbd, 0xd7, 0xc4, 0xec,
  0x0a, 0x09, 0xc9, 0x45, 0x3e, 0xea, 0xc8, 0xa3, 0x04, 0xb4, 0x34, 0x59,
  0x34, 0xd0, 0x10, 0xbc, 0x0a, 0xc7, 0x3e, 0x4f, 0x4b, 0x39, 0xb9, 0xf6,
  0xfa, 0x3b, 0xb4, 0xbf, 0xf3, 0x06, 0x20, 0xfb, 0x2f, 0xfc, 0x0c, 0x1a,
  0xb1, 0xdd, 0xc2, 0x4c, 0xef, 0xa5, 0xb5, 0x0f, 0xf7, 0x10, 0x41, 0x3b,
  0xbb, 0xcc, 0xcd, 0xf0, 0x04, 0x1a, 0xe0, 0x01, 0xb1, 0x18, 0x67, 0x25,
  0x01, 0x02, 0x45, 0xfb, 0x1d, 0xe5, 0xbb, 0x47, 0xbf, 0xae, 0x08, 0xbb,
  0xaf, 0x22, 0x08, 0xff, 0x59, 0x01, 0xc0, 0xb0, 0x02, 0x47, 0x40, 0xb6,
  0xc0, 0xa6, 0xd2, 0xaf, 0x27, 0x2c, 0xb9, 0x20, 0xc6, 0x0e, 0xd5, 0xbf,
  0xee, 0xc3, 0xca, 0xca, 0xd2, 0x44, 0x21, 0x03, 0x26, 0x15, 0xb9, 0xdc,
  0xaf, 0xf6, 0xce, 0x47, 0x4f, 0xf1, 0x04, 0x27, 0xc1, 0xd9, 0xb5, 0xe3,
  0xb8, 0xe0, 0x1a, 0x1a, 0x22, 0x1f, 0xf7, 0x1a, 0x27, 0xb4, 0xca, 0x22,
  0xac, 0x42, 0x3a, 0x22, 0xe3, 0x1e, 0xbf, 0xdd, 0x1b, 0xc4, 0x2b, 0xfe,
  0x2c, 0x0e, 0xc8, 0x00, 0xaf, 0x22, 0xda, 0x22, 0xf2, 0x32, 0x47, 0xe4,
  0xc8, 0x2f, 0xcd, 0xfe, 0xc6, 0xb5, 0x1e, 0xfa, 0x22, 0xcb, 0xe8, 0xb7,
  0x0a, 0xb3, 0xd9, 0xc0, 0xa8, 0xe2, 0x11, 0xdb, 0x26, 0xa9, 0xfb, 0xd4,
  0x29, 0x43, 0xde, 0xd1, 0xb2, 0xe7, 0x0a, 0xef, 0xd8, 0xea, 0xf9, 0xde,
  0xb1, 0x3f, 0x1d, 0x50, 0xca, 0xfa, 0x08, 0x06, 0xad, 0x2a, 0x43, 0xc1,
  0xc1, 0x38, 0xbe, 0x09, 0xee, 0xd6, 0x18, 0x10, 0xae, 0xff, 0x55, 0xf0,
  0x19, 0x30, 0xf7, 0x49, 0x18, 0x21, 0x27, 0x56, 0xb5, 0xca, 0x49, 0x1f,
  0x25, 0xd2, 0xa8, 0xf0, 0x4a, 0x07, 0x59, 0x2c, 0x2e, 0xc9, 0xf7, 0xdf,
  0xdd, 0x00, 0x50, 0xbd, 0x45, 0x4d, 0xf8, 0x58, 0xda, 0x1a, 0xb8, 0x47,
  0x45, 0x2c, 0x29, 0x1e, 0xa7, 0x16, 0xaa, 0x39, 0x0f, 0x13, 0x4a, 0x1c,
  0xda, 0xf2, 0xdf, 0xe1, 0x19, 0x14, 0xe0, 0x47, 0xf7, 0x03, 0x0e, 0x1b,
  0x14, 0x2f, 0x1f, 0x4e, 0x45, 0x47, 0x2b, 0xef, 0xfa, 0xdd, 0x16, 0x03,
  0x04, 0x01, 0xf9, 0xb3, 0x3e, 0xb0, 0x11, 0x55, 0xb2, 0x0a, 0x57, 0xe7,
  0xeb, 0x4d, 0x39, 0xcb, 0xef, 0x14, 0x56, 0xf4, 0x45, 0xf3, 0xa5, 0xaa,
  0xdd, 0x2f, 0xdd, 0xf0, 0xfa, 0x15, 0xf1, 0xb7, 0x14, 0xc1, 0xbc, 0x48,
  0x22, 0x57, 0xc7, 0x16, 0xca, 0x24, 0xf2, 0x46, 0x0f, 0x37, 0x42, 0xe1,
  0xdb, 0x3b, 0xdf, 0x2c, 0xef, 0x00, 0x4c, 0xd3, 0x48, 0x01, 0x52, 0xb8,
  0x21, 0x43, 0x15, 0x21, 0x35, 0x22, 0xfa, 0xce, 0xf8, 0xdb, 0xf7, 0xb7,
  0x37, 0x19, 0x56, 0x0b, 0x48, 0xf4, 0xde, 0xe5, 0x55, 0xd4, 0xea, 0x19,
  0xcb, 0xe4, 0x08, 0xea, 0x1c, 0xc0, 0xbc, 0xa7, 0x22, 0x49, 0xee, 0x2b,
  0xdb, 0xad, 0xca, 0xb8, 0xd4, 0xe0, 0x43, 0x4b, 0xb1, 0x56, 0x4f, 0x0d,
  0xb0, 0x2b, 0xc4, 0x14, 0xdf, 0x1c, 0x38, 0xd6, 0xff, 0xc2, 0x4e, 0xc7,
  0x14, 0x43, 0xa9, 0x51, 0xaa, 0xa9, 0xb2, 0x3c, 0x3b, 0xf5, 0xc3, 0x3e,
  0xab, 0x3f, 0x18, 0xcc, 0xec, 0xe1, 0x52, 0x30, 0xfa, 0x0b, 0x10, 0xac,
  0x0a, 0xcd, 0x09, 0xee, 0x29, 0x57, 0xe7, 0xf4, 0xc6, 0xf7, 0x5f, 0xc8,
  0x27, 0xe9, 0x24, 0x13, 0xf8, 0x0e, 0xde, 0xb8, 0x0b, 0xf2, 0x00, 0xc2,
  0x3d, 0xd4, 0x1a, 0xae, 0xe7, 0xf5, 0x0f, 0x30, 0xbc, 0x3f, 0x57, 0xcc,
  0x14, 0x62, 0xb7, 0x1e, 0xd9, 0xc2, 0xc2, 0x12, 0xd4, 0x48, 0xf7, 0xb1,
  0xed, 0x25, 0xaf, 0xae, 0x3c, 0x42, 0x59, 0xd1, 0x3e, 0xa2, 0xe9, 0xc1,
  0xc4, 0x11, 0x50, 0x09, 0xbe, 0x3d, 0x24, 0x5a, 0xc8, 0xcd, 0xb1, 0xb3,
  0x4e, 0x17, 0xb7, 0x25, 0xd0, 0x0c, 0xaf, 0x42, 0x13, 0x0d, 0x2d, 0x09,
  0xe6, 0xbd, 0x22, 0xb0, 0xff, 0xe0, 0xb5, 0x30, 0x48, 0xae, 0xe2, 0x4e,
  0x04, 0xaf, 0x53, 0xa9, 0x16, 0x47, 0xe3, 0x0a, 0xbd, 0x3e, 0xfb, 0xd4,
  0xeb, 0xfd, 0x0b, 0x56, 0xd3, 0xc1, 0x48, 0xf8, 0x24, 0xc6, 0x2d, 0xc2,
  0xea, 0x47, 0x0e, 0xb3, 0x08, 0x0d, 0x2c, 0x08, 0xd4, 0x24, 0x1b, 0x10,
  0x1a, 0x49, 0x56, 0xb7, 0xf2, 0x46, 0x21, 0x0c, 0xfb, 0xa7, 0xe8, 0xf1,
  0x32, 0x4d, 0xe1, 0xe9, 0xda, 0xbb, 0xd4, 0xef, 0x25, 0x3d, 0xc8, 0xb4,
  0xd6, 0x2c, 0xd6, 0x04, 0xd8, 0xd8, 0xf0, 0xfb, 0x09, 0x0e, 0x4e, 0x04,
  0x44, 0x3c, 0x48, 0xca, 0xc8, 0x2b, 0xc2, 0x03, 0x0a, 0x31, 0x3d, 0x52,
  0xc9, 0x47, 0xf1, 0xdb, 0x52, 0x7d, 0xb2, 0xe1, 0x74, 0x58, 0x1d, 0x4b,
  0x09, 0x1c, 0x1d, 0xd4, 0x13, 0x55, 0xbd, 0x18, 0x10, 0x6e, 0x5a, 0xbc,
  0xa6, 0xe4, 0xca, 0xac, 0x46, 0xf4, 0x02, 0xb1, 0x0e, 0xd4, 0xcc, 0x54,
  0xdd, 0xb7, 0xc1, 0xe7, 0x23, 0x50, 0xc3, 0x03, 0xce, 0x5a, 0xc0, 0xd8,
  0x21, 0xd2, 0x57, 0xff, 0xa8, 0x50, 0x04, 0xc8, 0xca, 0xed, 0xad, 0x0c,
  0xec, 0x07, 0x13, 0x0d, 0x01, 0xac, 0x25, 0xd7, 0x09, 0xc5, 0xdc, 0x02,
  0x57, 0x39, 0xbf, 0xb4, 0xba, 0x58, 0xdc, 0xab, 0x3f, 0x23, 0xb8, 0xb8,
  0xc8, 0xcc, 0xaf, 0xad, 0xeb, 0x2e, 0x1f, 0xe8, 0xad, 0xcc, 0xbe, 0x4d,
  0x1c, 0xcf, 0x1b, 0xe5, 0xdc, 0xee, 0xa6, 0x4e, 0xcd, 0x29, 0xf2, 0xf5,
  0xd6, 0x5a, 0x44, 0xf2, 0xab, 0x5c, 0xfa, 0x1a, 0xd5, 0xf2, 0xb1, 0x0d,
  0xf9, 0xc4, 0x23, 0xe4, 0xec, 0xf7, 0xc9, 0xbf, 0x39, 0xf0, 0x53, 0xca,
  0xf0, 0xc4, 0xce, 0xfa, 0xc5, 0xe0, 0x5a, 0xcb, 0xe6, 0x16, 0xb1, 0xdc,
  0xfd, 0x06, 0xca, 0x4f, 0x0d, 0xb7, 0xd8, 0x15, 0x4e, 0xc4, 0xe5, 0xc4,
  0xe1, 0x38, 0xc2, 0xb6, 0x00, 0x22, 0x34, 0x39, 0xc8, 0xc1, 0xc1, 0xae,
  0x29, 0xc0, 0x09, 0xb0, 0xd4, 0x27, 0xf7, 0x07, 0x23, 0xea, 0xc8, 0x2f,
  0xbf, 0x4a, 0xb0, 0xd0, 0xc5, 0x2f, 0xa9, 0xe3, 0x0e, 0x55, 0x50, 0x0f,
  0xa9, 0x4f, 0x01, 0x47, 0x09, 0x13, 0x00, 0xba, 0xe4, 0x06, 0xc0, 0x48,
  0x0e, 0xfa, 0x34, 0xe7, 0xed, 0x0c, 0x9b, 0xac, 0xf8, 0xc1, 0xf8, 0xb0,
  0xb8, 0xde, 0x55, 0xc4, 0xb1, 0xbb, 0x26, 0x53, 0x02, 0x16, 0xce, 0x13,
  0xe7, 0x06, 0xa8, 0x35, 0xda, 0xdc, 0xd2, 0xc1, 0x55, 0xc9, 0xa8, 0xbf,
  0xae, 0xaa, 0xca, 0xd6, 0x1d, 0x36, 0x16, 0x59, 0x2b, 0xc8, 0xc4, 0xff,
  0x2f, 0x49, 0xcc, 0x4e, 0xac, 0x47, 0xac, 0x0b, 0xbf, 0x0d, 0xcd, 0xe5,
  0x3a, 0xcc, 0xcf, 0xdf, 0x3b, 0xa6, 0xc7, 0xb6, 0x35, 0xcc, 0x56, 0xbb,
  0x4c, 0xed, 0x3a, 0x46, 0xce, 0xca, 0xf2, 0x4d, 0xc7, 0x28, 0xfe, 0xa6,
  0x3e, 0xc9, 0x36, 0x35, 0xe0, 0xb6, 0x09, 0xd8, 0xc6, 0x30, 0x05, 0x20,
  0x14, 0xd6, 0xba, 0xc0, 0xa9, 0x11, 0xb1, 0x49, 0xff, 0xeb, 0x00, 0x28,
  0x24, 0x23, 0xd6, 0xb2, 0xbb, 0x14, 0xad, 0x1a, 0xa6, 0x2e, 0xac, 0xc7,
  0xde, 0x06, 0xba, 0x53, 0x3d, 0xaa, 0xf2, 0xed, 0xdd, 0x3a, 0xfa, 0xd9,
  0x30, 0x2b, 0xda, 0xcb, 0xbb, 0xcc, 0x04, 0xea, 0xee, 0x46, 0x20, 0xc8,
  0xd1, 0xcf, 0x0d, 0xc0, 0xeb, 0xd1, 0xfb, 0x28, 0x36, 0x34, 0x38, 0xdf,
  0x23, 0x17, 0x42, 0xe8, 0x1b, 0xaa, 0xd5, 0xcd, 0x05, 0x03, 0xc3, 0xab,
  0x30, 0x1b, 0xe8, 0xd8, 0xad, 0xb9, 0xd5, 0xb9, 0x22, 0x33, 0xa4, 0x32,
  0xe9, 0x00, 0x29, 0xec, 0x18, 0x1c, 0xfd, 0x52, 0xd2, 0x35, 0x1a, 0x4f,
  0x49, 0x13, 0xb2, 0xeb, 0x4e, 0xbd, 0x39, 0x4e, 0x43, 0xfe, 0xac, 0x2f,
  0x43, 0x43, 0xb2, 0xef, 0x06, 0x11, 0x4d, 0xdf, 0x0e, 0x49, 0xd3, 0xb9,
  0x12, 0x30, 0x3d, 0x25, 0x3d, 0x27, 0xd7, 0xb9, 0x0d, 0xda, 0x01, 0x1d,
  0x4c, 0xb2, 0x3e, 0xfa, 0xb9, 0xe6, 0x0b, 0xab, 0x29, 0x07, 0x58, 0x07,
  0x4e, 0xf1, 0xe2, 0x10, 0x4f, 0x3e, 0xe3, 0xc6, 0x2b, 0x44, 0xab, 0xa8,
  0x16, 0x10, 0x1d, 0x46, 0xc2, 0x4e, 0xaf, 0x03, 0xe8, 0x38, 0x30, 0x46,
  0xaf, 0x44, 0xe9, 0xb7, 0x24, 0xbf, 0x4c, 0xac, 0xf1, 0xd0, 0x10, 0x37,
  0xf1, 0xd2, 0x4c, 0xb5, 0x2c, 0x0c, 0x0e, 0xce, 0xed, 0xb9, 0xba, 0x39,
  0xce, 0xcb, 0x3d, 0xbe, 0xd1, 0x50, 0xde, 0x33, 0x10, 0xf0, 0xaa, 0xfd,
  0x35, 0xd2, 0x3f, 0xf7, 0xd7, 0x52, 0x33, 0xe6, 0x37, 0x51, 0xf4, 0xe5,
  0xe9, 0xf6, 0x51, 0x2f, 0x32, 0x29, 0xf4, 0x31, 0x39, 0x33, 0xd7, 0xd2,
  0x3d, 0xe5, 0xb2, 0xc3, 0xaa, 0xc0, 0xf6, 0x49, 0xe4, 0x2c, 0x52, 0xc5,
  0xe0, 0x45, 0xa3, 0xb9, 0xaa, 0x46, 0xbd, 0xf3, 0x0f, 0xfa, 0xfa, 0xa7,
  0x33, 0x26, 0xaa, 0x35, 0xa5, 0x48, 0xab, 0xf2, 0xe3, 0xaa, 0xb5, 0xee,
  0xf5, 0x37, 0x0d, 0x2d, 0xd4, 0xba, 0x57, 0xbe, 0xbb, 0x3f, 0xf6, 0xb2,
  0x42, 0x35, 0xcf, 0x17, 0xa6, 0x4f, 0x0c, 0x4a, 0x04, 0xf2, 0xad, 0xeb,
  0x42, 0x10, 0x0b, 0xf6, 0xe7, 0x31, 0x19, 0xfb, 0x37, 0x12, 0x18, 0x50,
  0x2d, 0xc6, 0x0c, 0x47, 0x1b, 0xc2, 0x17, 0xa9, 0x30, 0x0e, 0xc1, 0x47,
  0x28, 0xfe, 0xd1, 0x14, 0xf8, 0x15, 0xfc, 0x21, 0xe9, 0x48, 0x31, 0x4d,
  0xbd, 0x41, 0x09, 0x4e, 0xbe, 0xc5, 0xf4, 0x2f, 0x3a, 0xf5, 0xfc, 0x27,
  0x18, 0x00, 0xe0, 0xc8, 0x4e, 0x0e, 0xdc, 0x40, 0xe4, 0xd6, 0xe9, 0xc0,
  0xe5, 0x03, 0x31, 0xbb, 0xbc, 0xf6, 0xac, 0x36, 0xbe, 0xc0, 0xea, 0x19,
  0xe1, 0x07, 0xbe, 0x3f, 0xd3, 0x3e, 0x21, 0xee, 0xe4, 0x43, 0x19, 0xa8,
  0xe1, 0xda, 0xda, 0x03, 0xd3, 0xb2, 0xcd, 0xe9, 0x50, 0xab, 0xa9, 0xf7,
  0xc0, 0xaf, 0x58, 0x1f, 0xc0, 0xc1, 0xd4, 0xb5, 0xaf, 0xc0, 0x35, 0x17,
  0xd4, 0xb9, 0xcf, 0x17, 0x36, 0xb5, 0xe9, 0x06, 0xd4, 0xbc, 0x4d, 0x48,
  0x40, 0xe8, 0xb6, 0x1b, 0xd0, 0x58, 0xef, 0xb2, 0xbd, 0x2e, 0xbe, 0x33,
  0x04, 0x1d, 0xa4, 0x3f, 0xd1, 0xb2, 0x36, 0xea, 0xc6, 0x38, 0x4b, 0x0f,
  0xd0, 0x1e, 0x43, 0xe1, 0x31, 0x13, 0xd8, 0xfd, 0x0a, 0x22, 0xa4, 0xf9,
  0xe0, 0xa3, 0xae, 0xc4, 0xbd, 0xca, 0x02, 0x53, 0xb1, 0xe0, 0xc6, 0x07,
  0xc7, 0x2f, 0xf5, 0x36, 0xad, 0x03, 0xdf, 0xab, 0x43, 0xdc, 0xbb, 0xbf,
  0x52, 0xe4, 0x0e, 0xbd, 0x21, 0x0d, 0xf5, 0x2f, 0x4a, 0xe2, 0x44, 0xc2,
  0x50, 0xcd, 0xd1, 0x27, 0xf7, 0xd2, 0x5a, 0xf3, 0xe4, 0x0b, 0xfe, 0x05,
  0xf5, 0xf4, 0xc6, 0xd1, 0xd7, 0x4b, 0x30, 0x1b, 0xfc, 0x12, 0xcc, 0x06,
  0x2d, 0xb0, 0x30, 0xb6, 0x42, 0xeb, 0x47, 0xe9, 0x0a, 0xc2, 0xff, 0xf3,
  0x45, 0xe4, 0x53, 0xd5, 0xa0, 0xc6, 0xec, 0xed, 0x08, 0xe3, 0xc6, 0x2d,
  0x57, 0xb2, 0xef, 0xd1, 0x54, 0xcd, 0xee, 0xac, 0xc6, 0xdf, 0x3d, 0xcf,
  0x0d, 0x58, 0x0b, 0xc4, 0xbd, 0xc8, 0x35, 0xcf, 0xca, 0x3d, 0x43, 0x59,
  0xbb, 0xbb, 0x12, 0x46, 0x0d, 0xfa, 0xe0, 0x4d, 0x55, 0x30, 0x04, 0xdb,
  0xd5, 0xbe, 0xb4, 0xb7, 0x5c, 0x1a, 0x4f, 0x14, 0x51, 0x3d, 0x44, 0x1f,
  0x2d, 0x41, 0xcf, 0x58, 0x08, 0xb8, 0xc5, 0x36, 0xe5, 0xd7, 0x4a, 0xeb,
  0x2a, 0xed, 0x03, 0xbc, 0xe1, 0x24, 0x48, 0x4f, 0xb8, 0xf1, 0x1e, 0xaf,
  0xd0, 0x0a, 0xb5, 0xb5, 0x18, 0xeb, 0x1b, 0x17, 0xc5, 0x10, 0x4f, 0x04,
  0xf8, 0x1c, 0xd4, 0x24, 0xcd, 0xc9, 0x4f, 0xe9, 0x28, 0x14, 0xcb, 0x3a,
  0x49, 0x0c, 0xc2, 0xe7, 0x18, 0x1e, 0xc8, 0xf9, 0xb8, 0x41, 0xb5, 0x47,
  0x0e, 0x42, 0xde, 0x27, 0x50, 0xb6, 0x40, 0xa6, 0x1a, 0x30, 0xd0, 0xed,
  0x20, 0xc7, 0x4b, 0xd8, 0xce, 0x0d, 0xb1, 0x43, 0xe2, 0xb8, 0xa3, 0xf8,
  0x59, 0x4e, 0xb7, 0xf0, 0x12, 0x2f, 0x55, 0xd7, 0x06, 0xe2, 0x13, 0xd9,
  0x4c, 0x0e, 0xf7, 0x0d, 0x0c, 0xf7, 0x10, 0xf2, 0x32, 0xb1, 0xa5, 0x47,
  0x11, 0x3d, 0x58, 0x53, 0x2b, 0xed, 0xa6, 0xe3, 0xd6, 0x08, 0x28, 0x0b,
  0xfa, 0xbf, 0x3b, 0x2c, 0x4c, 0xec, 0xe8, 0xee, 0x2a, 0x4c, 0x3d, 0xb4,
  0x3e, 0xf4, 0xb7, 0x1e, 0xbf, 0xc2, 0x58, 0xbf, 0x45, 0x03, 0x57, 0xbc,
  0x42, 0xf6, 0x1e, 0xec, 0xca, 0x3d, 0xbe, 0xf3, 0xae, 0xf2, 0xed, 0xed,
  0xa7, 0x3f, 0x14, 0x06, 0xd1, 0xbc, 0xf8, 0xfc, 0xf3, 0x56, 0xba, 0x32,
  0x08, 0x3c, 0xa8, 0xfb, 0x2f, 0xce, 0x10, 0xc6, 0x07, 0xda, 0x3e, 0xf0,
  0xf1, 0xee, 0x0f, 0xce, 0xfd, 0xd8, 0xe3, 0xf1, 0x47, 0xb1, 0xd1, 0x5a,
  0xc8, 0x3a, 0x34, 0xed, 0x4d, 0xd3, 0x3a, 0xc2, 0x08, 0xd2, 0xdb, 0xc3,
  0xe9, 0x4e, 0x21, 0xa6, 0x41, 0x0f, 0xc8, 0xd5, 0x49, 0x30, 0x32, 0x41,
  0x4f, 0x0e, 0x4a, 0xb9, 0xf8, 0xc3, 0xf9, 0xe9, 0x27, 0x46, 0xd9, 0xdb,
  0xaf, 0x3b, 0x5f, 0xf7, 0xce, 0xcb, 0xfc, 0x1a, 0xfc, 0x51, 0xb8, 0x04,
  0x51, 0xea, 0x7f, 0xfc, 0xf7, 0xf9, 0xff, 0xd5, 0x00, 0x11, 0x08, 0x0c,
  0x08, 0xae, 0x26, 0x1c, 0x0d, 0x56, 0x04, 0x1f, 0xa4, 0x39, 0xc1, 0x15,
  0x5a, 0x39, 0x54, 0x19, 0xd0, 0x32, 0xe3, 0x56, 0xbd, 0x1f, 0xc9, 0x2d,
  0xd0, 0x31, 0xcf, 0x1a, 0xd9, 0xeb, 0xde, 0x0b, 0x03, 0xd5, 0xd5, 0x57,
  0x04, 0xcf, 0x53, 0xe5, 0xd8, 0xd4, 0xfe, 0x06, 0xdd, 0xdb, 0x2d, 0x1b,
  0x35, 0xdb, 0x0a, 0xee, 0x29, 0x21, 0x11, 0xfc, 0xb0, 0x10, 0x26, 0xde,
  0x0f, 0xe3, 0x13, 0xf6, 0x07, 0xe2, 0x25, 0x46, 0x36, 0x0b, 0xd2, 0x02,
  0xcd, 0x11, 0x3b, 0x3c, 0xef, 0x17, 0x0d, 0x13, 0xe0, 0xf9, 0x3b, 0x22,
  0x41, 0xe3, 0x45, 0xb6, 0xae, 0x32, 0xc9, 0x3e, 0x33, 0xed, 0xba, 0xca,
  0xc6, 0x27, 0x53, 0x2d, 0xb2, 0xcd, 0x06, 0xce, 0x38, 0xa3, 0x05, 0xae,
  0xcf, 0xb0, 0x32, 0xc5, 0xb0, 0x28, 0x0f, 0xd8, 0xbe, 0xda, 0xb4, 0xd0,
  0xb2, 0x16, 0xdf, 0x03, 0xdd, 0xc9, 0xbb, 0x56, 0x45, 0x1b, 0x09, 0xc6,
  0x0b, 0xed, 0x32, 0x30, 0xea, 0x01, 0xb6, 0xc0, 0x39, 0x2c, 0x46, 0xda,
  0x14, 0x3e, 0xc9, 0x48, 0xbb, 0xf1, 0xe2, 0x11, 0xe5, 0x3a, 0x2f, 0x57,
  0x09, 0x2a, 0x49, 0xca, 0xcc, 0xe3, 0xaf, 0x0a, 0xb3, 0x23, 0x14, 0x02,
  0x14, 0x3c, 0xf6, 0x1f, 0x3e, 0x19, 0x58, 0x23, 0x21, 0x41, 0x2f, 0x1c,
  0x27, 0x44, 0x1a, 0xfc, 0xc2, 0x1a, 0x5a, 0x31, 0x28, 0x26, 0xc4, 0xcd,
  0xe8, 0x01, 0x36, 0x30, 0x0f, 0x1a, 0xbe, 0xf0, 0xcb, 0xcf, 0x1d, 0x01,
  0x47, 0x09, 0x55, 0xaf, 0xc6, 0x30, 0x39, 0xff, 0x57, 0xd9, 0xf0, 0x08,
  0xd2, 0xd7, 0xcc, 0x02, 0x38, 0x2e, 0xed, 0x1c, 0xbd, 0x2b, 0xf5, 0x18,
  0x05, 0x05, 0x52, 0xdb, 0xc5, 0x49, 0xf7, 0x18, 0xc1, 0xca, 0x16, 0xce,
  0x00, 0xef, 0x55, 0xfd, 0x26, 0xbe, 0xd1, 0xaf, 0x33, 0x34, 0x34, 0xc7,
  0x2d, 0x3b, 0x23, 0xfb, 0xce, 0xc5, 0x50, 0xdb, 0xce, 0x59, 0x43, 0xec,
  0x1c, 0xf7, 0x4a, 0x08, 0xf4, 0x35, 0xc1, 0x5a, 0xcf, 0x41, 0x16, 0xba,
  0xeb, 0xb6, 0xc7, 0x32, 0x37, 0x42, 0x51, 0x3a, 0xc8, 0xca, 0xe4, 0xd3,
  0xdf, 0xab, 0x06, 0xd5, 0xea, 0xca, 0xd7, 0x0e, 0xb1, 0x24, 0xed, 0xed,
  0x36, 0x49, 0xc2, 0x2e, 0x09, 0x1b, 0x93, 0xf9, 0xc0, 0xe2, 0xc4, 0x51,
  0x19, 0xaa, 0xe1, 0xbc, 0x41, 0xd2, 0x08, 0x02, 0xf3, 0xad, 0x02, 0x33,
  0xdc, 0x41, 0xbb, 0xce, 0x13, 0xa9, 0xca, 0x28, 0xc3, 0xf5, 0xd2, 0x13,
  0xcd, 0xc8, 0x53, 0xce, 0x00, 0x3e, 0x20, 0x21, 0x58, 0xe4, 0x3f, 0xcf,
  0x55, 0xaf, 0x4d, 0x35, 0xef, 0x3b, 0x3e, 0x2e, 0xdb, 0xff, 0x18, 0xbb,
  0x1b, 0xfa, 0xfa, 0x2f, 0x1e, 0x0d, 0xe7, 0xc7, 0xf1, 0x33, 0xf6, 0x5b,
  0x14, 0x39, 0x6a, 0xd9, 0x42, 0x4a, 0x3b, 0x2e, 0xc8, 0x14, 0xb9, 0x2e,
  0x00, 0xa5, 0xf5, 0xf6, 0xf6, 0xb6, 0x37, 0x0b, 0x2f, 0xba, 0x52, 0xee,
  0x12, 0xe9, 0x19, 0xfd, 0xb0, 0xbb, 0xae, 0x4c, 0xb2, 0xdc, 0xfa, 0x4a,
  0x30, 0x2a, 0x56, 0xb3, 0xcd, 0xa6, 0x1a, 0xc7, 0xa5, 0xfe, 0x4d, 0x51,
  0x03, 0xec, 0x00, 0x49, 0x44, 0xab, 0x3e, 0xe2, 0xc9, 0xc6, 0x29, 0xae,
  0x0a, 0xd4, 0x53, 0xa8, 0xd7, 0x2c, 0xba, 0xba, 0xdb, 0xa4, 0x0b, 0x27,
  0xe8, 0x2c, 0x05, 0x53, 0x0c, 0x56, 0xb8, 0x33, 0xf8, 0xf2, 0x20, 0xc9,
  0xe1, 0x12, 0x08, 0xbb, 0x4f, 0xfa, 0x3b, 0x26, 0xb1, 0x2d, 0xcc, 0xd4,
  0x19, 0xf9, 0xe2, 0x02, 0x2b, 0xab, 0xfe, 0xf0, 0xe4, 0x30, 0xd5, 0xd9,
  0xd2, 0xff, 0xc0, 0xd5, 0xc3, 0xaf, 0xf5, 0xe5, 0x36, 0x12, 0xcb, 0x2c,
  0x2c, 0xda, 0xaa, 0xc2, 0xc6, 0xfc, 0xd9, 0xa7, 0x40, 0xfb, 0x21, 0x09,
  0xf9, 0x42, 0xf3, 0x32, 0xd9, 0xf0, 0xbc, 0xca, 0xc7, 0xdd, 0xb2, 0x2b,
  0x3e, 0xd4, 0x30, 0xd3, 0xce, 0x17, 0x2a, 0x1b, 0xe7, 0xfd, 0xe4, 0xa9,
  0xcb, 0xc3, 0x4b, 0x13, 0xef, 0xd5, 0x06, 0x40, 0xd1, 0xf1, 0xb5, 0x24,
  0xb6, 0xbf, 0xcf, 0x04, 0x00, 0xb3, 0xb1, 0x1e, 0xe2, 0x57, 0x4c, 0xd6,
  0xba, 0xd8, 0x41, 0xae, 0x02, 0x14, 0x21, 0x0d, 0x2e, 0xb8, 0xec, 0xae,
  0xbc, 0xac, 0xf8, 0x51, 0xd9, 0x17, 0x58, 0x37, 0x38, 0x2c, 0xba, 0x2d,
  0xbd, 0xdd, 0xfe, 0xd6, 0xc5, 0xe7, 0xd5, 0x30, 0x22, 0x00, 0xfe, 0x37,
  0xaf, 0x1f, 0x27, 0x11, 0x4e, 0xf4, 0x4e, 0xed, 0xe4, 0xac, 0x14, 0x03,
  0x25, 0xb1, 0xe0, 0x27, 0xc4, 0x0d, 0x4d, 0x0d, 0x26, 0xfd, 0xa2, 0xc8,
  0x00, 0x28, 0xa8, 0x2b, 0xf6, 0xb5, 0x42, 0x4f, 0xbf, 0xcd, 0x4e, 0x4f,
  0xdd, 0x4d, 0x32, 0xdf, 0xa5, 0x2a, 0xd1, 0xc6, 0x0c, 0xf7, 0xda, 0x2c,
  0x15, 0xca, 0x3a, 0x56, 0x4f, 0xc2, 0x4a, 0xae, 0xca, 0x0f, 0xcd, 0xd7,
  0xad, 0x22, 0x07, 0xf2, 0xb0, 0xfb, 0x1a, 0x51, 0x52, 0xf5, 0x3b, 0x19,
  0xd3, 0xfc, 0x36, 0x42, 0x31, 0x3f, 0xb8, 0x29, 0x08, 0x16, 0x46, 0xa7,
  0xda, 0xca, 0xfb, 0x43, 0x50, 0x57, 0xae, 0x02, 0xa8, 0x23, 0xc1, 0xf8,
  0xbf, 0x48, 0xc9, 0x41, 0xd9, 0x1b, 0xea, 0x0b, 0x01, 0xfb, 0x0e, 0x30,
  0xc0, 0xbc, 0xb6, 0xab, 0xdb, 0xfa, 0xae, 0x27, 0xd3, 0x24, 0x25, 0x28,
  0x1b, 0x19, 0x58, 0x12, 0xd3, 0xe9, 0xec, 0xf6, 0xb4, 0x29, 0x34, 0xe2,
  0x2d, 0xe7, 0x4c, 0xf2, 0xd8, 0xfc, 0x54, 0x08, 0x03, 0x08, 0xe5, 0x23,
  0xe3, 0x27, 0xc4, 0xfc, 0xc3, 0xc5, 0xcb, 0x49, 0xcd, 0xb7, 0xd3, 0xd2,
  0x15, 0xda, 0x2b, 0x4c, 0xc9, 0x16, 0xbf, 0x14, 0xe5, 0x18, 0x22, 0xae,
  0x45, 0x13, 0x12, 0xb8, 0xbf, 0x46, 0xf4, 0xf5, 0x36, 0x27, 0xd5, 0xa9,
  0xbe, 0xfc, 0xc0, 0xa7, 0x1c, 0x43, 0xbb, 0xc4, 0xd2, 0x54, 0x19, 0x10,
  0xca, 0xdb, 0xfb, 0xad, 0x13, 0xeb, 0x05, 0x3d, 0xd4, 0xf1, 0x3d, 0x48,
  0x4e, 0xfd, 0x54, 0x14, 0xbe, 0x23, 0x34, 0xb8, 0xd5, 0xa8, 0x06, 0x09,
  0x3c, 0xbe, 0xa2, 0xb8, 0x0f, 0x2d, 0xcb, 0x50, 0xe0, 0xe0, 0x1c, 0x19,
  0xae, 0xb6, 0xee, 0x06, 0x53, 0xac, 0xc0, 0xfb, 0xb4, 0xf5, 0xdd, 0xdc,
  0x16, 0x09, 0xac, 0x12, 0xbb, 0xf7, 0xf5, 0x48, 0xfc, 0xac, 0xa8, 0x23,
  0xd9, 0x01, 0x24, 0xe0, 0xb4, 0xfe, 0x22, 0xad, 0xcf, 0xb8, 0xeb, 0x43,
  0xc6, 0x07, 0x53, 0xd6, 0x1e, 0x58, 0x1a, 0x2d, 0xde, 0x0c, 0x1b, 0xad,
  0xc2, 0xcf, 0xaa, 0xdb, 0xb0, 0x12, 0x53, 0x2a, 0xd8, 0xe1, 0xc7, 0x2c,
  0xdb, 0xd3, 0x45, 0xc0, 0xa5, 0xb1, 0xbe, 0xea, 0x3b, 0x9e, 0xce, 0xdd,
  0xad, 0xfb, 0xb9, 0xd3, 0xff, 0x4c, 0x4d, 0xf9, 0x42, 0x50, 0xbc, 0xbd,
  0xd7, 0x47, 0x1a, 0x5f, 0x5a, 0x52, 0x3a, 0xf5, 0x1a, 0xb7, 0x21, 0x07,
  0xf3, 0xd0, 0x4b, 0x59, 0x0f, 0x1c, 0x58, 0x16, 0x5b, 0xac, 0x38, 0x21,
  0x00, 0xb9, 0xb5, 0xda, 0xee, 0xf8, 0xe8, 0x06, 0xed, 0xf3, 0x4f, 0x55,
  0xb6, 0xa8, 0x11, 0x43, 0xd0, 0x18, 0xe7, 0x62, 0x26, 0xce, 0x0b, 0x2d,
  0x09, 0xfa, 0xed, 0x0e, 0xdd, 0xae, 0x17, 0x50, 0x27, 0xce, 0x04, 0x14,
  0xc5, 0x43, 0xd6, 0x04, 0x17, 0xfe, 0x0b, 0x32, 0x1b, 0x07, 0x46, 0x28,
  0x0e, 0x19, 0xc6, 0x0a, 0xbc, 0xc5, 0xff, 0x31, 0xb4, 0x1a, 0x2d, 0x27,
  0x10, 0x0b, 0x00, 0x3d, 0x5b, 0x00, 0x34, 0x0d, 0xc6, 0xf0, 0x53, 0xf1,
  0x12, 0xf5, 0xb5, 0x42, 0x09, 0xfa, 0xd7, 0xb8, 0x19, 0x36, 0x44, 0xda,
  0x4c, 0xfa, 0x54, 0xe9, 0xc5, 0xcd, 0xc4, 0x22, 0xf4, 0xba, 0x2a, 0xa9,
  0xb0, 0xa7, 0x44, 0xb4, 0xd9, 0xe3, 0xb3, 0xb9, 0xe1, 0xef, 0xac, 0xe7,
  0x21, 0x4f, 0x1e, 0x3f, 0xc2, 0xc3, 0xf4, 0xc0, 0xc0, 0xb0, 0xed, 0xe9,
  0x00, 0x26, 0xb6, 0xb6, 0xde, 0x26, 0x2b, 0xf7, 0x42, 0xce, 0xd7, 0xd6,
  0xb6, 0x0e, 0xbd, 0xe2, 0x0e, 0x18, 0xda, 0x04, 0xc9, 0xb1, 0x12, 0x08,
  0x44, 0x16, 0xb7, 0xb9, 0x14, 0xf9, 0xd0, 0x54, 0x1f, 0x29, 0xaa, 0xde,
  0xcc, 0x3e, 0x49, 0x37, 0xc6, 0xb5, 0x1e, 0x4b, 0xe9, 0xbc, 0x4f, 0xe0,
  0x37, 0x26, 0x1a, 0x0f, 0xe3, 0xb3, 0xfa, 0x29, 0xcf, 0x0c, 0x4b, 0x12,
  0xf3, 0xaf, 0xdc, 0x17, 0xa5, 0x48, 0xf2, 0x10, 0x3a, 0x3a, 0x42, 0x1a,
  0x20, 0x29, 0xc0, 0x3c, 0xd3, 0x02, 0x22, 0xfd, 0xd7, 0x4a, 0x1a, 0xdb,
  0xe9, 0xd8, 0xd5, 0x26, 0xc1, 0x55, 0x2a, 0xef, 0x49, 0xbf, 0x14, 0xb1,
  0xd1, 0x22, 0x00, 0x19, 0x3e, 0xca, 0xf4, 0x4f, 0xa8, 0x4d, 0xda, 0x0f,
  0xd6, 0x3b, 0xbe, 0x39, 0xe1, 0x09, 0x3f, 0x11, 0xd4, 0x2a, 0xb4, 0x22,
  0x17, 0xd7, 0xde, 0x5a, 0xd4, 0xb6, 0x05, 0x41, 0x09, 0x3f, 0x20, 0x44,
  0xf5, 0x4e, 0xb1, 0x15, 0xe5, 0x05, 0xaf, 0xf0, 0xf2, 0xad, 0xf3, 0xcb,
  0x12, 0x46, 0xc3, 0x1f, 0xc0, 0x13, 0xdf, 0xe3, 0xda, 0x2c, 0x1f, 0xd8,
  0xdb, 0xe3, 0xb6, 0x39, 0x41, 0x24, 0x03, 0xd3, 0xd2, 0xec, 0x29, 0x53,
  0xe4, 0xf2, 0xd3, 0xc5, 0xc0, 0xf6, 0xff, 0x53, 0xb6, 0x31, 0x19, 0x36,
  0xad, 0xd3, 0xb1, 0x42, 0xd6, 0xac, 0xfc, 0x14, 0x2d, 0x10, 0x4a, 0xfa,
  0xc4, 0x56, 0x16, 0x2e, 0xd3, 0x0d, 0xb6, 0xe8, 0x18, 0xeb, 0x15, 0x3b,
  0xd3, 0x4a, 0x2e, 0x0e, 0xdd, 0x4c, 0xfa, 0xd6, 0x05, 0xbf, 0xcb, 0xcc,
  0x2b, 0xe5, 0x0e, 0xe3, 0xc4, 0x14, 0x12, 0xe3, 0x24, 0xa5, 0xdd, 0x37,
  0xe4, 0x16, 0xd1, 0xd2, 0xaa, 0x3c, 0x13, 0xe9, 0xc3, 0x2f, 0xaa, 0x17,
  0xaa, 0xbd, 0xcd, 0xf2, 0x26, 0xae, 0x03, 0xa9, 0x45, 0x21, 0xe5, 0x33,
  0x56, 0x1c, 0x10, 0xdb, 0xb1, 0x3b, 0xf3, 0xd5, 0x2d, 0x33, 0xf3, 0x40,
  0x0a, 0xc2, 0x43, 0x23, 0xe1, 0xef, 0x1a, 0xf8, 0xe3, 0xf9, 0x42, 0xeb,
  0xcd, 0x0b, 0xe9, 0xf8, 0x28, 0xc0, 0xd3, 0x29, 0xb5, 0xfd, 0x3a, 0xd5,
  0x59, 0x46, 0x36, 0x40, 0x0c, 0xe5, 0x04, 0x0c, 0xd7, 0x52, 0xf3, 0x4d,
  0x26, 0xe2, 0xb8, 0xbb, 0xb5, 0x3c, 0x5a, 0x0f, 0x06, 0x45, 0xed, 0x43,
  0xd1, 0x9f, 0x57, 0xf0, 0x2e, 0x56, 0x37, 0xf6, 0xd9, 0xf6, 0x40, 0xf1,
  0xfc, 0x35, 0x04, 0x55, 0xeb, 0xd0, 0xce, 0xf3, 0x29, 0xec, 0xb3, 0xb3,
  0xf2, 0xd1, 0xdb, 0x18, 0x56, 0x26, 0x0f, 0x5b, 0xf8, 0xf1, 0x11, 0x09,
  0xe2, 0x4d, 0x24, 0x56, 0xeb, 0xff, 0xc7, 0x50, 0x3f, 0x01, 0x25, 0xbb,
  0xde, 0xd6, 0xf4, 0x35, 0xe7, 0xb9, 0xf1, 0x48, 0x15, 0xb2, 0x11, 0x29,
  0x37, 0xfe, 0xe7, 0xe7, 0x20, 0xa8, 0xe8, 0x2d, 0x0d, 0xdf, 0xc7, 0x16,
  0xb2, 0xad, 0x27, 0xa7, 0x55, 0xa2, 0xf2, 0x4a, 0xe6, 0x09, 0xeb, 0x41,
  0xb7, 0x55, 0x08, 0xe4, 0xbb, 0xf6, 0x16, 0xb7, 0x28, 0x30, 0x2c, 0xf1,
  0xa6, 0xcd, 0x29, 0x01, 0xd8, 0xcc, 0xbd, 0xfb, 0x16, 0x11, 0x1f, 0xc1,
  0xb1, 0x38, 0x21, 0x0a, 0xe0, 0xde, 0xe9, 0xff, 0xa6, 0x38, 0xd4, 0xc5,
  0xd0, 0x51, 0xc6, 0xe1, 0xe3, 0xcb, 0x1b, 0x3b, 0xa4, 0x0e, 0xac, 0x3b,
  0x40, 0x51, 0x54, 0xdc, 0xad, 0x16, 0xd0, 0xcc, 0x53, 0x46, 0x39, 0xcd,
  0x2c, 0x05, 0x4e, 0xe4, 0x0e, 0xab, 0xfb, 0xbe, 0xb2, 0xcd, 0x3d, 0xce,
  0x23, 0xf2, 0x21, 0xef, 0x4c, 0x35, 0x20, 0x29, 0xc5, 0xe0, 0x26, 0x1a,
  0xd3, 0x38, 0xa9, 0x4c, 0x28, 0xb9, 0x15, 0x42, 0x0f, 0x4b, 0xdf, 0x32,
  0xe7, 0xcb, 0x09, 0xdf, 0xd1, 0x32, 0x23, 0xa7, 0x2e, 0xe3, 0xf4, 0x0c,
  0xef, 0xc7, 0xb4, 0xf7, 0xe4, 0x18, 0xb9, 0x54, 0x32, 0x10, 0x20, 0xe2,
  0x55, 0xfe, 0xfb, 0xf9, 0xce, 0xc8, 0x0d, 0x02, 0xae, 0x49, 0x29, 0x10,
  0xb4, 0xd0, 0x13, 0x38, 0xc1, 0xb2, 0xab, 0xf5, 0xb7, 0x03, 0x00, 0x11,
  0xc8, 0x1f, 0xe8, 0xfd, 0xd2, 0xce, 0x47, 0xf3, 0xdd, 0xbb, 0xdd, 0x34,
  0xf9, 0xb8, 0xa6, 0xf7, 0xab, 0x40, 0xbc, 0xd7, 0xca, 0x1f, 0x4a, 0xcf,
  0x4a, 0x20, 0x09, 0x59, 0xd1, 0xab, 0x56, 0x0a, 0xe3, 0x4c, 0x28, 0xda,
  0xd3, 0x24, 0xb4, 0xdb, 0x0a, 0x1f, 0xe9, 0xfd, 0xea, 0xf5, 0xda, 0xa6,
  0xde, 0xae, 0x11, 0x54, 0xa8, 0x2a, 0x04, 0x54, 0xa0, 0x25, 0xdc, 0xd3,
  0x06, 0xab, 0x3c, 0xb2, 0xf7, 0x50, 0x18, 0xb1, 0xac, 0x3f, 0xaf, 0xcd,
  0x06, 0xee, 0xaf, 0x0a, 0xd4, 0x08, 0x00, 0x04, 0xdf, 0x12, 0x3f, 0xeb,
  0xaf, 0x33, 0x41, 0x01, 0x07, 0xaa, 0xec, 0xd8, 0x2c, 0xfe, 0x48, 0xf3,
  0x58, 0x06, 0x38, 0x4e, 0x23, 0x22, 0xcf, 0xf1, 0xab, 0x0a, 0xf5, 0xd9,
  0x10, 0xa9, 0x0c, 0xaf, 0xc5, 0x20, 0xd3, 0x1e, 0xfe, 0xe9, 0xb8, 0xf6,
  0x2f, 0xe1, 0xd4, 0xab, 0xc4, 0x28, 0xa7, 0xbf, 0x13, 0x09, 0xee, 0x17,
  0x4b, 0xe2, 0xae, 0x1e, 0x28, 0x2a, 0xe6, 0x35, 0x09, 0xca, 0x15, 0xfb,
  0x00, 0x55, 0xb4, 0xb7, 0x3b, 0xd3, 0x51, 0xb5, 0x4d, 0xa9, 0x09, 0xb5,
  0x06, 0xfa, 0xdb, 0x1b, 0x18, 0x36, 0x49, 0x49, 0xa6, 0xbb, 0xd6, 0xaa,
  0x5a, 0xc0, 0xb5, 0xae, 0x52, 0x3a, 0x17, 0xd8, 0x36, 0x1e, 0x43, 0x3a,
  0xfd, 0xb9, 0x40, 0x43, 0x2b, 0x32, 0xe4, 0xd9, 0xb6, 0x32, 0xd2, 0x32,
  0x43, 0x17, 0x4e, 0x4b, 0x26, 0xd1, 0x4c, 0x4c, 0x08, 0xc9, 0xe1, 0xf8,
  0x10, 0x3b, 0xa2, 0xdc, 0xe1, 0xf3, 0xe8, 0x35, 0x2a, 0x23, 0xd1, 0x11,
  0xc6, 0xa7, 0xd7, 0x0f, 0x2d, 0x42, 0xbb, 0xd9, 0x51, 0x00, 0xa8, 0x31,
  0xb0, 0x2a, 0xfa, 0xd2, 0x24, 0xa1, 0xa9, 0x40, 0x0e, 0x30, 0x12, 0x1e,
  0x12, 0xe5, 0xae, 0x26, 0xff, 0x08, 0xba, 0xb6, 0xf6, 0xe6, 0xdc, 0x36,
  0x2c, 0x48, 0x34, 0xa2, 0xfb, 0x05, 0xc3, 0x30, 0x3c, 0xbb, 0xc1, 0x4f,
  0xeb, 0x32, 0xb7, 0x0b, 0xac, 0x02, 0xda, 0x38, 0x2c, 0xef, 0xd2, 0xda,
  0xe8, 0xfb, 0xfb, 0xdd, 0x0b, 0xa3, 0xad, 0x5a, 0x46, 0x0e, 0x01, 0x19,
  0xeb, 0x42, 0x11, 0xed, 0x0d, 0xee, 0xce, 0x03, 0xf7, 0xee, 0xba, 0x57,
  0x49, 0xa0, 0x4f, 0x3f, 0x18, 0x2a, 0x25, 0x44, 0x4c, 0x39, 0xd4, 0x1c,
  0xda, 0xc4, 0x38, 0xc7, 0x44, 0xb0, 0x1f, 0xcb, 0x54, 0xdd, 0x57, 0xb2,
  0x3d, 0xf4, 0x3f, 0x02, 0xc1, 0x29, 0xf2, 0x1e, 0x25, 0x18, 0xcf, 0x1d,
